{
  "version": "1.0",
  "truncation": null,
  "padding": null,
  "added_tokens": [],
  "normalizer": null,
  "pre_tokenizer": {
    "type": "Whitespace"
  },
  "post_processor": null,
  "decoder": null,
  "model": {
    "type": "BPE",
    "dropout": null,
    "unk_token": null,
    "continuing_subword_prefix": null,
    "end_of_word_suffix": null,
    "fuse_unk": false,
    "byte_fallback": false,
    "ignore_merges": false,
    "vocab": {
      "0": 0,
      "1": 1,
      "2": 2,
      "3": 3,
      "4": 4,
      "5": 5,
      "6": 6,
      "7": 7,
      "8": 8,
      "9": 9,
      "a": 10,
      "b": 11,
      "c": 12,
      "d": 13,
      "e": 14,
      "f": 15,
      "g": 16,
      "h": 17,
      "i": 18,
      "j": 19,
      "k": 20,
      "l": 21,
      "m": 22,
      "n": 23,
      "o": 24,
      "p": 25,
      "q": 26,
      "r": 27,
      "s": 28,
      "t": 29,
      "u": 30,
      "v": 31,
      "w": 32,
      "x": 33,
      "y": 34,
      "z": 35,
      "er": 36,
      "in": 37,
      "on": 38,
      "re": 39,
      "us": 40,
      "an": 41,
      "ing": 42,
      "st": 43,
      "ar": 44,
      "en": 45,
      "at": 46,
      "al": 47,
      "user": 48,
      "le": 49,
      "or": 50,
      "th": 51,
      "ed": 52,
      "ay": 53,
      "lo": 54,
      "li": 55,
      "me": 56,
      "ch": 57,
      "it": 58,
      "un": 59,
      "ic": 60,
      "co": 61,
      "ro": 62,
      "se": 63,
      "ve": 64,
      "de": 65,
      "go": 66,
      "ac": 67,
      "ke": 68,
      "am": 69,
      "ri": 70,
      "ly": 71,
      "day": 72,
      "sh": 73,
      "to": 74,
      "gh": 75,
      "et": 76,
      "ion": 77,
      "ad": 78,
      "ss": 79,
      "ne": 80,
      "el": 81,
      "ur": 82,
      "il": 83,
      "ver": 84,
      "tr": 85,
      "be": 86,
      "ent": 87,
      "um": 88,
      "ir": 89,
      "ap": 90,
      "te": 91,
      "ght": 92,
      "ho": 93,
      "fe": 94,
      "ow": 95,
      "one": 96,
      "ti": 97,
      "ul": 98,
      "so": 99,
      "ma": 100,
      "we": 101,
      "od": 102,
      "si": 103,
      "ce": 104,
      "sp": 105,
      "ter": 106,
      "la": 107,
      "ge": 108,
      "ok": 109,
      "om": 110,
      "ta": 111,
      "ation": 112,
      "up": 113,
      "fun": 114,
      "po": 115,
      "di": 116,
      "wor": 117,
      "end": 118,
      "as": 119,
      "ate": 120,
      "ut": 121,
      "and": 122,
      "op": 123,
      "bo": 124,
      "pro": 125,
      "he": 126,
      "ye": 127,
      "mo": 128,
      "love": 129,
      "con": 130,
      "vi": 131,
      "ra": 132,
      "ack": 133,
      "ol": 134,
      "art": 135,
      "ny": 136,
      "like": 137,
      "pe": 138,
      "ank": 139,
      "com": 140,
      "mi": 141,
      "ally": 142,
      "get": 143,
      "gre": 144,
      "ue": 145,
      "app": 146,
      "ff": 147,
      "ble": 148,
      "ine": 149,
      "20": 150,
      "ha": 151,
      "mar": 152,
      "ca": 153,
      "ct": 154,
      "thank": 155,
      "ld": 156,
      "all": 157,
      "pre": 158,
      "pl": 159,
      "ure": 160,
      "ight": 161,
      "ard": 162,
      "ever": 163,
      "ex": 164,
      "pr": 165,
      "id": 166,
      "is": 167,
      "new": 168,
      "funny": 169,
      "man": 170,
      "look": 171,
      "no": 172,
      "ant": 173,
      "life": 174,
      "fa": 175,
      "jo": 176,
      "ga": 177,
      "now": 178,
      "king": 179,
      "sa": 180,
      "ill": 181,
      "way": 182,
      "thing": 183,
      "fo": 184,
      "ump": 185,
      "ity": 186,
      "ice": 187,
      "time": 188,
      "today": 189,
      "gr": 190,
      "ck": 191,
      "ell": 192,
      "for": 193,
      "qu": 194,
      "ful": 195,
      "pic": 196,
      "der": 197,
      "ther": 198,
      "good": 199,
      "201": 200,
      "ou": 201,
      "lol": 202,
      "fri": 203,
      "im": 204,
      "see": 205,
      "au": 206,
      "wom": 207,
      "great": 208,
      "happ": 209,
      "na": 210,
      "some": 211,
      "per": 212,
      "trump": 213,
      "ba": 214,
      "ton": 215,
      "ting": 216,
      "ite": 217,
      "wo": 218,
      "ie": 219,
      "wa": 220,
      "pa": 221,
      "ind": 222,
      "ber": 223,
      "ace": 224,
      "know": 225,
      "ig": 226,
      "ot": 227,
      "best": 228,
      "sc": 229,
      "ud": 230,
      "ive": 231,
      "ort": 232,
      "num": 233,
      "every": 234,
      "ep": 235,
      "hi": 236,
      "act": 237,
      "red": 238,
      "sup": 239,
      "wi": 240,
      "low": 241,
      "ry": 242,
      "the": 243,
      "mor": 244,
      "ink": 245,
      "do": 246,
      "mon": 247,
      "gu": 248,
      "lea": 249,
      "back": 250,
      "ople": 251,
      "march": 252,
      "people": 253,
      "ning": 254,
      "year": 255,
      "thanks": 256,
      "work": 257,
      "son": 258,
      "got": 259,
      "ama": 260,
      "und": 261,
      "ci": 262,
      "ek": 263,
      "ty": 264,
      "wh": 265,
      "br": 266,
      "say": 267,
      "ser": 268,
      "make": 269,
      "win": 270,
      "ous": 271,
      "00": 272,
      "ens": 273,
      "happy": 274,
      "row": 275,
      "fir": 276,
      "ip": 277,
      "ment": 278,
      "ev": 279,
      "uld": 280,
      "oo": 281,
      "mu": 282,
      "come": 283,
      "fin": 284,
      "off": 285,
      "2017": 286,
      "friend": 287,
      "read": 288,
      "ath": 289,
      "use": 290,
      "week": 291,
      "right": 292,
      "ft": 293,
      "fi": 294,
      "really": 295,
      "ust": 296,
      "ren": 297,
      "ong": 298,
      "tra": 299,
      "weet": 300,
      "ster": 301,
      "ote": 302,
      "int": 303,
      "play": 304,
      "game": 305,
      "let": 306,
      "bl": 307,
      "first": 308,
      "pho": 309,
      "irl": 310,
      "my": 311,
      "out": 312,
      "meme": 313,
      "ary": 314,
      "spe": 315,
      "ist": 316,
      "ak": 317,
      "atch": 318,
      "lit": 319,
      "ach": 320,
      "port": 321,
      "want": 322,
      "fan": 323,
      "min": 324,
      "world": 325,
      "ick": 326,
      "photo": 327,
      "need": 328,
      "car": 329,
      "ll": 330,
      "ub": 331,
      "girl": 332,
      "rt": 333,
      "well": 334,
      "ence": 335,
      "much": 336,
      "age": 337,
      "real": 338,
      "show": 339,
      "cre": 340,
      "ving": 341,
      "try": 342,
      "don": 343,
      "never": 344,
      "night": 345,
      "che": 346,
      "da": 347,
      "ger": 348,
      "fol": 349,
      "oh": 350,
      "guy": 351,
      "womens": 352,
      "gn": 353,
      "gi": 354,
      "tonight": 355,
      "amer": 356,
      "bu": 357,
      "think": 358,
      "tweet": 359,
      "ward": 360,
      "womensmarch": 361,
      "ance": 362,
      "any": 363,
      "hel": 364,
      "ob": 365,
      "mer": 366,
      "eng": 367,
      "col": 368,
      "ory": 369,
      "ah": 370,
      "sday": 371,
      "ssed": 372,
      "ru": 373,
      "ms": 374,
      "sar": 375,
      "feel": 376,
      "tle": 377,
      "ia": 378,
      "ute": 379,
      "gold": 380,
      "thou": 381,
      "haha": 382,
      "wit": 383,
      "woman": 384,
      "fre": 385,
      "ast": 386,
      "ved": 387,
      "vie": 388,
      "bre": 389,
      "yo": 390,
      "super": 391,
      "bro": 392,
      "bet": 393,
      "ily": 394,
      "still": 395,
      "led": 396,
      "start": 397,
      "su": 398,
      "ited": 399,
      "going": 400,
      "sha": 401,
      "cas": 402,
      "ph": 403,
      "sun": 404,
      "americ": 405,
      "ner": 406,
      "wr": 407,
      "vers": 408,
      "take": 409,
      "xt": 410,
      "quote": 411,
      "coun": 412,
      "cl": 413,
      "cho": 414,
      "urn": 415,
      "stand": 416,
      "ship": 417,
      "team": 418,
      "ways": 419,
      "watch": 420,
      "ste": 421,
      "med": 422,
      "would": 423,
      "wait": 424,
      "du": 425,
      "gur": 426,
      "sid": 427,
      "indi": 428,
      "last": 429,
      "by": 430,
      "war": 431,
      "always": 432,
      "sign": 433,
      "ball": 434,
      "part": 435,
      "even": 436,
      "bi": 437,
      "fam": 438,
      "ture": 439,
      "inter": 440,
      "boy": 441,
      "tal": 442,
      "zing": 443,
      "sk": 444,
      "mom": 445,
      "sta": 446,
      "presid": 447,
      "ang": 448,
      "star": 449,
      "lie": 450,
      "god": 451,
      "inau": 452,
      "par": 453,
      "big": 454,
      "follow": 455,
      "inaugur": 456,
      "lad": 457,
      "other": 458,
      "sarcas": 459,
      "cr": 460,
      "home": 461,
      "ated": 462,
      "side": 463,
      "ason": 464,
      "care": 465,
      "ready": 466,
      "cor": 467,
      "ugh": 468,
      "sel": 469,
      "fav": 470,
      "book": 471,
      "pri": 472,
      "sn": 473,
      "help": 474,
      "president": 475,
      "auti": 476,
      "lobe": 477,
      "thought": 478,
      "of": 479,
      "leg": 480,
      "light": 481,
      "amp": 482,
      "head": 483,
      "face": 484,
      "bir": 485,
      "cle": 486,
      "sat": 487,
      "sure": 488,
      "beauti": 489,
      "beautiful": 490,
      "land": 491,
      "ating": 492,
      "made": 493,
      "ction": 494,
      "exc": 495,
      "att": 496,
      "comp": 497,
      "iz": 498,
      "ild": 499,
      "better": 500,
      "17": 501,
      "ater": 502,
      "19": 503,
      "mp": 504,
      "picture": 505,
      "lolsarcas": 506,
      "line": 507,
      "tro": 508,
      "ket": 509,
      "fl": 510,
      "able": 511,
      "sm": 512,
      "sit": 513,
      "state": 514,
      "can": 515,
      "story": 516,
      "str": 517,
      "post": 518,
      "10": 519,
      "que": 520,
      "sing": 521,
      "true": 522,
      "morning": 523,
      "ian": 524,
      "lease": 525,
      "ab": 526,
      "es": 527,
      "word": 528,
      "someone": 529,
      "may": 530,
      "amazing": 531,
      "lobes": 532,
      "mber": 533,
      "cla": 534,
      "wow": 535,
      "job": 536,
      "englobes": 537,
      "goldenglobes": 538,
      "inauguration": 539,
      "stop": 540,
      "uth": 541,
      "friday": 542,
      "gue": 543,
      "ene": 544,
      "ale": 545,
      "uni": 546,
      "keep": 547,
      "dr": 548,
      "comm": 549,
      "grat": 550,
      "everyone": 551,
      "dog": 552,
      "witter": 553,
      "bad": 554,
      "next": 555,
      "hear": 556,
      "another": 557,
      "cal": 558,
      "her": 559,
      "nation": 560,
      "sy": 561,
      "miss": 562,
      "val": 563,
      "set": 564,
      "af": 565,
      "vice": 566,
      "lot": 567,
      "dis": 568,
      "view": 569,
      "ag": 570,
      "coming": 571,
      "dra": 572,
      "lu": 573,
      "live": 574,
      "family": 575,
      "chan": 576,
      "rip": 577,
      "give": 578,
      "kid": 579,
      "won": 580,
      "vel": 581,
      "tomor": 582,
      "ather": 583,
      "cer": 584,
      "mus": 585,
      "congrat": 586,
      "tomorrow": 587,
      "rent": 588,
      "little": 589,
      "ding": 590,
      "hey": 591,
      "high": 592,
      "black": 593,
      "ody": 594,
      "getting": 595,
      "weekend": 596,
      "bow": 597,
      "cy": 598,
      "dre": 599,
      "birth": 600,
      "snow": 601,
      "twitter": 602,
      "could": 603,
      "free": 604,
      "ted": 605,
      "ans": 606,
      "ial": 607,
      "vo": 608,
      "with": 609,
      "white": 610,
      "hand": 611,
      "char": 612,
      "self": 613,
      "bar": 614,
      "ear": 615,
      "ja": 616,
      "je": 617,
      "ers": 618,
      "sho": 619,
      "are": 620,
      "gy": 621,
      "hum": 622,
      "member": 623,
      "blessed": 624,
      "two": 625,
      "clo": 626,
      "please": 627,
      "run": 628,
      "tre": 629,
      "fect": 630,
      "something": 631,
      "fact": 632,
      "har": 633,
      "ish": 634,
      "put": 635,
      "tell": 636,
      "sto": 637,
      "stre": 638,
      "ald": 639,
      "news": 640,
      "2016": 641,
      "cial": 642,
      "wonder": 643,
      "ious": 644,
      "mean": 645,
      "ness": 646,
      "proud": 647,
      "joy": 648,
      "call": 649,
      "ire": 650,
      "edy": 651,
      "awe": 652,
      "gon": 653,
      "gen": 654,
      "nice": 655,
      "sen": 656,
      "top": 657,
      "cur": 658,
      "just": 659,
      "who": 660,
      "cat": 661,
      "odi": 662,
      "versity": 663,
      "sin": 664,
      "house": 665,
      "yes": 666,
      "season": 667,
      "many": 668,
      "air": 669,
      "cli": 670,
      "less": 671,
      "place": 672,
      "lan": 673,
      "meet": 674,
      "fr": 675,
      "fit": 676,
      "pet": 677,
      "wal": 678,
      "rel": 679,
      "illi": 680,
      "test": 681,
      "hour": 682,
      "away": 683,
      "hard": 684,
      "sent": 685,
      "roast": 686,
      "yeah": 687,
      "vide": 688,
      "old": 689,
      "america": 690,
      "awesome": 691,
      "cus": 692,
      "gg": 693,
      "wed": 694,
      "iting": 695,
      "ower": 696,
      "open": 697,
      "pret": 698,
      "food": 699,
      "monday": 700,
      "birthday": 701,
      "bus": 702,
      "over": 703,
      "ts": 704,
      "ee": 705,
      "nor": 706,
      "wn": 707,
      "finally": 708,
      "done": 709,
      "tiv": 710,
      "spir": 711,
      "comedy": 712,
      "chool": 713,
      "12": 714,
      "ago": 715,
      "blo": 716,
      "est": 717,
      "por": 718,
      "school": 719,
      "laugh": 720,
      "ism": 721,
      "obama": 722,
      "body": 723,
      "under": 724,
      "cover": 725,
      "belie": 726,
      "gram": 727,
      "university": 728,
      "jan": 729,
      "mm": 730,
      "sur": 731,
      "tion": 732,
      "rece": 733,
      "mile": 734,
      "found": 735,
      "100": 736,
      "ffe": 737,
      "ies": 738,
      "offer": 739,
      "favor": 740,
      "ark": 741,
      "del": 742,
      "baby": 743,
      "excited": 744,
      "dri": 745,
      "power": 746,
      "goal": 747,
      "rain": 748,
      "wards": 749,
      "bowl": 750,
      "ass": 751,
      "city": 752,
      "net": 753,
      "pack": 754,
      "cent": 755,
      "turn": 756,
      "ven": 757,
      "alth": 758,
      "add": 759,
      "rus": 760,
      "ical": 761,
      "wear": 762,
      "aa": 763,
      "long": 764,
      "nat": 765,
      "said": 766,
      "service": 767,
      "bor": 768,
      "cap": 769,
      "fil": 770,
      "hu": 771,
      "mat": 772,
      "ni": 773,
      "oney": 774,
      "point": 775,
      "heart": 776,
      "nothing": 777,
      "perfect": 778,
      "hy": 779,
      "ught": 780,
      "video": 781,
      "men": 782,
      "plan": 783,
      "looking": 784,
      "class": 785,
      "date": 786,
      "fer": 787,
      "must": 788,
      "sco": 789,
      "ffer": 790,
      "find": 791,
      "ition": 792,
      "tain": 793,
      "hit": 794,
      "hope": 795,
      "favorite": 796,
      "11": 797,
      "ele": 798,
      "vote": 799,
      "foot": 800,
      "ung": 801,
      "gether": 802,
      "press": 803,
      "glad": 804,
      "shir": 805,
      "ask": 806,
      "prlife": 807,
      "prroast": 808,
      "person": 809,
      "support": 810,
      "colle": 811,
      "break": 812,
      "fc": 813,
      "kind": 814,
      "pat": 815,
      "urday": 816,
      "sunday": 817,
      "bc": 818,
      "em": 819,
      "sle": 820,
      "stud": 821,
      "together": 822,
      "change": 823,
      "ium": 824,
      "mind": 825,
      "ual": 826,
      "chat": 827,
      "health": 828,
      "ough": 829,
      "american": 830,
      "pretty": 831,
      "30": 832,
      "50": 833,
      "cra": 834,
      "gra": 835,
      "iss": 836,
      "anno": 837,
      "soon": 838,
      "sist": 839,
      "via": 840,
      "hair": 841,
      "wish": 842,
      "month": 843,
      "offic": 844,
      "music": 845,
      "pm": 846,
      "wel": 847,
      "chri": 848,
      "making": 849,
      "india": 850,
      "national": 851,
      "pay": 852,
      "list": 853,
      "champ": 854,
      "shot": 855,
      "cond": 856,
      "fail": 857,
      "name": 858,
      "donald": 859,
      "saturday": 860,
      "bri": 861,
      "dan": 862,
      "ping": 863,
      "you": 864,
      "aro": 865,
      "lead": 866,
      "truth": 867,
      "sol": 868,
      "gree": 869,
      "ban": 870,
      "stu": 871,
      "polit": 872,
      "prworld": 873,
      "grap": 874,
      "1st": 875,
      "cute": 876,
      "ken": 877,
      "sor": 878,
      "ere": 879,
      "thur": 880,
      "cour": 881,
      "own": 882,
      "cont": 883,
      "country": 884,
      "fight": 885,
      "hate": 886,
      "zy": 887,
      "retweet": 888,
      "weather": 889,
      "iness": 890,
      "fore": 891,
      "gro": 892,
      "hal": 893,
      "remember": 894,
      "wood": 895,
      "train": 896,
      "anyone": 897,
      "gin": 898,
      "ima": 899,
      "money": 900,
      "wis": 901,
      "ya": 902,
      "left": 903,
      "tawards": 904,
      "trying": 905,
      "16": 906,
      "ide": 907,
      "ihear": 908,
      "coach": 909,
      "tot": 910,
      "motiv": 911,
      "lady": 912,
      "lolsarcasm": 913,
      "iheartawards": 914,
      "bly": 915,
      "enough": 916,
      "cess": 917,
      "came": 918,
      "join": 919,
      "qual": 920,
      "feeling": 921,
      "lolsarcasms": 922,
      "believe": 923,
      "pub": 924,
      "lic": 925,
      "ult": 926,
      "cast": 927,
      "funnypic": 928,
      "snap": 929,
      "illion": 930,
      "football": 931,
      "around": 932,
      "sty": 933,
      "stay": 934,
      "enjoy": 935,
      "key": 936,
      "tag": 937,
      "full": 938,
      "congrats": 939,
      "custo": 940,
      "13": 941,
      "sum": 942,
      "uary": 943,
      "also": 944,
      "unch": 945,
      "ics": 946,
      "coffe": 947,
      "scre": 948,
      "party": 949,
      "dam": 950,
      "ps": 951,
      "sad": 952,
      "form": 953,
      "happen": 954,
      "player": 955,
      "strong": 956,
      "shirt": 957,
      "bat": 958,
      "ise": 959,
      "ler": 960,
      "ley": 961,
      "took": 962,
      "hot": 963,
      "omg": 964,
      "blue": 965,
      "check": 966,
      "pt": 967,
      "san": 968,
      "tri": 969,
      "army": 970,
      "ator": 971,
      "proble": 972,
      "winter": 973,
      "watching": 974,
      "announ": 975,
      "totally": 976,
      "ror": 977,
      "sed": 978,
      "tv": 979,
      "wing": 980,
      "cool": 981,
      "room": 982,
      "200": 983,
      "coffee": 984,
      "dy": 985,
      "child": 986,
      "ending": 987,
      "pick": 988,
      "den": 989,
      "fall": 990,
      "ling": 991,
      "vil": 992,
      "yay": 993,
      "recor": 994,
      "uture": 995,
      "clear": 996,
      "hun": 997,
      "sal": 998,
      "defin": 999,
      "might": 1000,
      "hon": 1001,
      "pen": 1002,
      "smile": 1003,
      "ina": 1004,
      "nesday": 1005,
      "save": 1006,
      "everything": 1007,
      "minute": 1008,
      "human": 1009,
      "since": 1010,
      "wednesday": 1011,
      "sleep": 1012,
      "18": 1013,
      "bit": 1014,
      "io": 1015,
      "insta": 1016,
      "count": 1017,
      "luck": 1018,
      "funnypics": 1019,
      "future": 1020,
      "lly": 1021,
      "nd": 1022,
      "ring": 1023,
      "tor": 1024,
      "tic": 1025,
      "ually": 1026,
      "ws": 1027,
      "zz": 1028,
      "seen": 1029,
      "ney": 1030,
      "mail": 1031,
      "spon": 1032,
      "differ": 1033,
      "present": 1034,
      "thursday": 1035,
      "av": 1036,
      "aking": 1037,
      "dom": 1038,
      "eye": 1039,
      "fic": 1040,
      "hill": 1041,
      "kill": 1042,
      "wer": 1043,
      "inv": 1044,
      "reci": 1045,
      "used": 1046,
      "stor": 1047,
      "order": 1048,
      "teach": 1049,
      "working": 1050,
      "movie": 1051,
      "saying": 1052,
      "share": 1053,
      "motivation": 1054,
      "15": 1055,
      "but": 1056,
      "cry": 1057,
      "hone": 1058,
      "ka": 1059,
      "tive": 1060,
      "most": 1061,
      "oooo": 1062,
      "welcome": 1063,
      "christ": 1064,
      "ced": 1065,
      "fla": 1066,
      "mess": 1067,
      "else": 1068,
      "poli": 1069,
      "joke": 1070,
      "moment": 1071,
      "without": 1072,
      "champion": 1073,
      "cu": 1074,
      "ore": 1075,
      "ped": 1076,
      "ital": 1077,
      "ross": 1078,
      "maga": 1079,
      "cele": 1080,
      "phone": 1081,
      "medium": 1082,
      "bal": 1083,
      "cha": 1084,
      "ssion": 1085,
      "west": 1086,
      "tax": 1087,
      "prlove": 1088,
      "joh": 1089,
      "finish": 1090,
      "talk": 1091,
      "quest": 1092,
      "bt": 1093,
      "din": 1094,
      "dro": 1095,
      "mate": 1096,
      "water": 1097,
      "inspir": 1098,
      "acy": 1099,
      "waiting": 1100,
      "commit": 1101,
      "bas": 1102,
      "gan": 1103,
      "lar": 1104,
      "za": 1105,
      "ush": 1106,
      "lim": 1107,
      "unity": 1108,
      "shing": 1109,
      "tex": 1110,
      "spect": 1111,
      "bel": 1112,
      "down": 1113,
      "pi": 1114,
      "tue": 1115,
      "ze": 1116,
      "thed": 1117,
      "lip": 1118,
      "second": 1119,
      "gest": 1120,
      "taking": 1121,
      "pop": 1122,
      "uty": 1123,
      "produ": 1124,
      "mid": 1125,
      "event": 1126,
      "guess": 1127,
      "russi": 1128,
      "college": 1129,
      "celebr": 1130,
      "bur": 1131,
      "lay": 1132,
      "ten": 1133,
      "ont": 1134,
      "rest": 1135,
      "appreci": 1136,
      "color": 1137,
      "wrong": 1138,
      "student": 1139,
      "far": 1140,
      "ham": 1141,
      "sub": 1142,
      "vic": 1143,
      "already": 1144,
      "road": 1145,
      "def": 1146,
      "dead": 1147,
      "pot": 1148,
      "seems": 1149,
      "dont": 1150,
      "record": 1151,
      "john": 1152,
      "aus": 1153,
      "cri": 1154,
      "dc": 1155,
      "ience": 1156,
      "lon": 1157,
      "late": 1158,
      "ming": 1159,
      "million": 1160,
      "almost": 1161,
      "memor": 1162,
      "mas": 1163,
      "protest": 1164,
      "itely": 1165,
      "sorry": 1166,
      "mr": 1167,
      "went": 1168,
      "dest": 1169,
      "ulation": 1170,
      "sis": 1171,
      "die": 1172,
      "worth": 1173,
      "visit": 1174,
      "not": 1175,
      "forget": 1176,
      "least": 1177,
      "buy": 1178,
      "writing": 1179,
      "career": 1180,
      "dream": 1181,
      "definitely": 1182,
      "award": 1183,
      "bs": 1184,
      "hh": 1185,
      "han": 1186,
      "sweet": 1187,
      "wan": 1188,
      "ative": 1189,
      "design": 1190,
      "bea": 1191,
      "ution": 1192,
      "saw": 1193,
      "leave": 1194,
      "serious": 1195,
      "troll": 1196,
      "relation": 1197,
      "tuesday": 1198,
      "agree": 1199,
      "ik": 1200,
      "nn": 1201,
      "os": 1202,
      "stic": 1203,
      "roll": 1204,
      "appro": 1205,
      "case": 1206,
      "special": 1207,
      "rently": 1208,
      "january": 1209,
      "idea": 1210,
      "customer": 1211,
      "cam": 1212,
      "card": 1213,
      "dad": 1214,
      "flo": 1215,
      "ju": 1216,
      "mc": 1217,
      "our": 1218,
      "sil": 1219,
      "respon": 1220,
      "deli": 1221,
      "town": 1222,
      "eld": 1223,
      "social": 1224,
      "box": 1225,
      "mark": 1226,
      "ade": 1227,
      "squ": 1228,
      "vin": 1229,
      "ins": 1230,
      "united": 1231,
      "coup": 1232,
      "bring": 1233,
      "fire": 1234,
      "daily": 1235,
      "quotes": 1236,
      "park": 1237,
      "single": 1238,
      "quality": 1239,
      "fal": 1240,
      "uck": 1241,
      "yet": 1242,
      "report": 1243,
      "lete": 1244,
      "rock": 1245,
      "update": 1246,
      "vid": 1247,
      "cted": 1248,
      "wanted": 1249,
      "photograp": 1250,
      "announce": 1251,
      "relationship": 1252,
      "bla": 1253,
      "band": 1254,
      "dou": 1255,
      "lma": 1256,
      "pal": 1257,
      "pie": 1258,
      "vir": 1259,
      "step": 1260,
      "amed": 1261,
      "tom": 1262,
      "aper": 1263,
      "conf": 1264,
      "import": 1265,
      "carpet": 1266,
      "sky": 1267,
      "damn": 1268,
      "couple": 1269,
      "40": 1270,
      "cid": 1271,
      "jack": 1272,
      "non": 1273,
      "trip": 1274,
      "stru": 1275,
      "lear": 1276,
      "tho": 1277,
      "ico": 1278,
      "hold": 1279,
      "vious": 1280,
      "anything": 1281,
      "selfie": 1282,
      "street": 1283,
      "fine": 1284,
      "oc": 1285,
      "py": 1286,
      "ug": 1287,
      "ude": 1288,
      "reason": 1289,
      "using": 1290,
      "ana": 1291,
      "loved": 1292,
      "pray": 1293,
      "safe": 1294,
      "times": 1295,
      "there": 1296,
      "actually": 1297,
      "travel": 1298,
      "fanta": 1299,
      "legend": 1300,
      "hat": 1301,
      "nie": 1302,
      "rac": 1303,
      "inking": 1304,
      "level": 1305,
      "beat": 1306,
      "comic": 1307,
      "history": 1308,
      "final": 1309,
      "understand": 1310,
      "aw": 1311,
      "dark": 1312,
      "emp": 1313,
      "hor": 1314,
      "hur": 1315,
      "mad": 1316,
      "tt": 1317,
      "uk": 1318,
      "wind": 1319,
      "load": 1320,
      "lish": 1321,
      "deal": 1322,
      "ssi": 1323,
      "upid": 1324,
      "board": 1325,
      "green": 1326,
      "ffic": 1327,
      "memes": 1328,
      "gift": 1329,
      "your": 1330,
      "brother": 1331,
      "whole": 1332,
      "recei": 1333,
      "wearing": 1334,
      "wisdom": 1335,
      "drop": 1336,
      "fel": 1337,
      "kk": 1338,
      "later": 1339,
      "ric": 1340,
      "les": 1341,
      "lou": 1342,
      "lost": 1343,
      "seat": 1344,
      "rich": 1345,
      "soft": 1346,
      "law": 1347,
      "more": 1348,
      "move": 1349,
      "peace": 1350,
      "exper": 1351,
      "playing": 1352,
      "build": 1353,
      "young": 1354,
      "thoughts": 1355,
      "facebook": 1356,
      "valent": 1357,
      "congratulation": 1358,
      "half": 1359,
      "24": 1360,
      "cut": 1361,
      "flow": 1362,
      "gla": 1363,
      "tf": 1364,
      "vent": 1365,
      "incre": 1366,
      "ats": 1367,
      "sey": 1368,
      "sell": 1369,
      "deser": 1370,
      "aming": 1371,
      "shop": 1372,
      "ilar": 1373,
      "nyc": 1374,
      "washing": 1375,
      "maybe": 1376,
      "walk": 1377,
      "receive": 1378,
      "problem": 1379,
      "beauty": 1380,
      "bra": 1381,
      "modi": 1382,
      "ned": 1383,
      "ple": 1384,
      "sw": 1385,
      "rep": 1386,
      "respect": 1387,
      "mex": 1388,
      "rise": 1389,
      "sport": 1390,
      "spring": 1391,
      "ased": 1392,
      "proba": 1393,
      "yester": 1394,
      "fast": 1395,
      "winner": 1396,
      "giving": 1397,
      "though": 1398,
      "interest": 1399,
      "question": 1400,
      "washington": 1401,
      "yesterday": 1402,
      "25": 1403,
      "brow": 1404,
      "gar": 1405,
      "hell": 1406,
      "ii": 1407,
      "lin": 1408,
      "og": 1409,
      "sch": 1410,
      "sand": 1411,
      "stupid": 1412,
      "log": 1413,
      "ape": 1414,
      "spo": 1415,
      "ational": 1416,
      "outside": 1417,
      "internet": 1418,
      "instagram": 1419,
      "probably": 1420,
      "bb": 1421,
      "bul": 1422,
      "bill": 1423,
      "send": 1424,
      "tur": 1425,
      "uc": 1426,
      "arri": 1427,
      "arti": 1428,
      "liber": 1429,
      "demo": 1430,
      "tour": 1431,
      "ular": 1432,
      "vis": 1433,
      "appa": 1434,
      "office": 1435,
      "breaking": 1436,
      "official": 1437,
      "leader": 1438,
      "contin": 1439,
      "important": 1440,
      "cup": 1441,
      "lor": 1442,
      "mal": 1443,
      "match": 1444,
      "wx": 1445,
      "reg": 1446,
      "thre": 1447,
      "begin": 1448,
      "sound": 1449,
      "spot": 1450,
      "comment": 1451,
      "bless": 1452,
      "marri": 1453,
      "where": 1454,
      "obvious": 1455,
      "suit": 1456,
      "business": 1457,
      "screen": 1458,
      "theday": 1459,
      "burn": 1460,
      "ji": 1461,
      "mic": 1462,
      "vol": 1463,
      "wall": 1464,
      "liter": 1465,
      "acter": 1466,
      "tral": 1467,
      "hood": 1468,
      "lain": 1469,
      "cause": 1470,
      "ctor": 1471,
      "sometimes": 1472,
      "bestfan": 1473,
      "song": 1474,
      "indian": 1475,
      "early": 1476,
      "llywood": 1477,
      "incredi": 1478,
      "21": 1479,
      "jer": 1480,
      "uch": 1481,
      "van": 1482,
      "resist": 1483,
      "dear": 1484,
      "posit": 1485,
      "mother": 1486,
      "lovely": 1487,
      "expe": 1488,
      "prjoke": 1489,
      "note": 1490,
      "fake": 1491,
      "league": 1492,
      "witch": 1493,
      "drink": 1494,
      "character": 1495,
      "forever": 1496,
      "eu": 1497,
      "ref": 1498,
      "ature": 1499,
      "chill": 1500,
      "ves": 1501,
      "ety": 1502,
      "possi": 1503,
      "fak": 1504,
      "pain": 1505,
      "000": 1506,
      "club": 1507,
      "queen": 1508,
      "enews": 1509,
      "gener": 1510,
      "huge": 1511,
      "matter": 1512,
      "crazy": 1513,
      "snapchat": 1514,
      "valentine": 1515,
      "apparently": 1516,
      "bestfanarmy": 1517,
      "ben": 1518,
      "eat": 1519,
      "gun": 1520,
      "ram": 1521,
      "tar": 1522,
      "ond": 1523,
      "living": 1524,
      "cold": 1525,
      "told": 1526,
      "text": 1527,
      "space": 1528,
      "gress": 1529,
      "exp": 1530,
      "action": 1531,
      "why": 1532,
      "reading": 1533,
      "speed": 1534,
      "suc": 1535,
      "north": 1536,
      "literally": 1537,
      "asi": 1538,
      "bed": 1539,
      "fly": 1540,
      "grow": 1541,
      "jor": 1542,
      "pur": 1543,
      "usa": 1544,
      "stra": 1545,
      "this": 1546,
      "secre": 1547,
      "tail": 1548,
      "table": 1549,
      "prote": 1550,
      "extra": 1551,
      "bag": 1552,
      "parent": 1553,
      "ign": 1554,
      "dress": 1555,
      "politics": 1556,
      "hillary": 1557,
      "storm": 1558,
      "received": 1559,
      "crow": 1560,
      "dic": 1561,
      "hind": 1562,
      "ker": 1563,
      "male": 1564,
      "nfl": 1565,
      "stick": 1566,
      "lity": 1567,
      "roy": 1568,
      "sex": 1569,
      "track": 1570,
      "enter": 1571,
      "mag": 1572,
      "bot": 1573,
      "field": 1574,
      "ize": 1575,
      "wonderful": 1576,
      "summer": 1577,
      "different": 1578,
      "texas": 1579,
      "london": 1580,
      "falcon": 1581,
      "14": 1582,
      "2nd": 1583,
      "ech": 1584,
      "xx": 1585,
      "arch": 1586,
      "phy": 1587,
      "legit": 1588,
      "sense": 1589,
      "finished": 1590,
      "cking": 1591,
      "dle": 1592,
      "ese": 1593,
      "tun": 1594,
      "tren": 1595,
      "inde": 1596,
      "anti": 1597,
      "throw": 1598,
      "chick": 1599,
      "temp": 1600,
      "main": 1601,
      "asy": 1602,
      "fair": 1603,
      "base": 1604,
      "past": 1605,
      "pass": 1606,
      "door": 1607,
      "cheer": 1608,
      "close": 1609,
      "film": 1610,
      "ville": 1611,
      "deliver": 1612,
      "louis": 1613,
      "fakenews": 1614,
      "ctive": 1615,
      "fro": 1616,
      "jp": 1617,
      "ko": 1618,
      "ube": 1619,
      "ena": 1620,
      "loving": 1621,
      "bey": 1622,
      "poor": 1623,
      "four": 1624,
      "ware": 1625,
      "suppor": 1626,
      "compet": 1627,
      "ject": 1628,
      "meeting": 1629,
      "drive": 1630,
      "election": 1631,
      "healthy": 1632,
      "stuff": 1633,
      "style": 1634,
      "double": 1635,
      "lmao": 1636,
      "democr": 1637,
      "email": 1638,
      "hilar": 1639,
      "iv": 1640,
      "lam": 1641,
      "zi": 1642,
      "ense": 1643,
      "thinking": 1644,
      "chance": 1645,
      "acce": 1646,
      "trans": 1647,
      "tech": 1648,
      "odia": 1649,
      "sive": 1650,
      "terror": 1651,
      "ender": 1652,
      "mood": 1653,
      "apple": 1654,
      "sav": 1655,
      "former": 1656,
      "hahaha": 1657,
      "starting": 1658,
      "talking": 1659,
      "attack": 1660,
      "absol": 1661,
      "store": 1662,
      "client": 1663,
      "listen": 1664,
      "group": 1665,
      "ticket": 1666,
      "seriously": 1667,
      "secret": 1668,
      "absolute": 1669,
      "bud": 1670,
      "cru": 1671,
      "dge": 1672,
      "ef": 1673,
      "emo": 1674,
      "easy": 1675,
      "ky": 1676,
      "mit": 1677,
      "mur": 1678,
      "pit": 1679,
      "wild": 1680,
      "wtf": 1681,
      "inst": 1682,
      "incl": 1683,
      "ston": 1684,
      "orge": 1685,
      "lock": 1686,
      "lig": 1687,
      "chang": 1688,
      "account": 1689,
      "ril": 1690,
      "tie": 1691,
      "sider": 1692,
      "moon": 1693,
      "grand": 1694,
      "number": 1695,
      "writ": 1696,
      "clean": 1697,
      "course": 1698,
      "piece": 1699,
      "cel": 1700,
      "ks": 1701,
      "ran": 1702,
      "tit": 1703,
      "yy": 1704,
      "anim": 1705,
      "lil": 1706,
      "mes": 1707,
      "chic": 1708,
      "sec": 1709,
      "quick": 1710,
      "page": 1711,
      "speak": 1712,
      "golden": 1713,
      "complete": 1714,
      "hero": 1715,
      "drawing": 1716,
      "front": 1717,
      "ference": 1718,
      "patri": 1719,
      "happened": 1720,
      "championship": 1721,
      "artist": 1722,
      "bum": 1723,
      "iso": 1724,
      "ially": 1725,
      "mart": 1726,
      "pun": 1727,
      "paper": 1728,
      "rd": 1729,
      "sam": 1730,
      "va": 1731,
      "ww": 1732,
      "yout": 1733,
      "inste": 1734,
      "res": 1735,
      "short": 1736,
      "behind": 1737,
      "ird": 1738,
      "gee": 1739,
      "dire": 1740,
      "ended": 1741,
      "mance": 1742,
      "brit": 1743,
      "oftheday": 1744,
      "answer": 1745,
      "earth": 1746,
      "shock": 1747,
      "running": 1748,
      "center": 1749,
      "filter": 1750,
      "publi": 1751,
      "honor": 1752,
      "teacher": 1753,
      "police": 1754,
      "reply": 1755,
      "riseup": 1756,
      "hilarious": 1757,
      "4th": 1758,
      "uu": 1759,
      "whe": 1760,
      "inal": 1761,
      "stat": 1762,
      "rible": 1763,
      "simp": 1764,
      "promo": 1765,
      "consider": 1766,
      "actor": 1767,
      "wife": 1768,
      "fix": 1769,
      "stern": 1770,
      "hello": 1771,
      "dude": 1772,
      "satire": 1773,
      "small": 1774,
      "surpri": 1775,
      "grade": 1776,
      "imag": 1777,
      "obviously": 1778,
      "incredible": 1779,
      "success": 1780,
      "23": 1781,
      "bin": 1782,
      "ked": 1783,
      "kick": 1784,
      "mine": 1785,
      "nba": 1786,
      "pup": 1787,
      "pink": 1788,
      "smo": 1789,
      "return": 1790,
      "stage": 1791,
      "she": 1792,
      "shar": 1793,
      "shion": 1794,
      "tired": 1795,
      "okay": 1796,
      "model": 1797,
      "exact": 1798,
      "fashion": 1799,
      "gain": 1800,
      "wake": 1801,
      "what": 1802,
      "series": 1803,
      "sistance": 1804,
      "image": 1805,
      "committed": 1806,
      "fantastic": 1807,
      "liberal": 1808,
      "prjokes": 1809,
      "bye": 1810,
      "ded": 1811,
      "dol": 1812,
      "ired": 1813,
      "kit": 1814,
      "mum": 1815,
      "mir": 1816,
      "pan": 1817,
      "vs": 1818,
      "sele": 1819,
      "gov": 1820,
      "across": 1821,
      "sher": 1822,
      "too": 1823,
      "ada": 1824,
      "ones": 1825,
      "south": 1826,
      "confir": 1827,
      "force": 1828,
      "ryan": 1829,
      "intel": 1830,
      "speech": 1831,
      "evening": 1832,
      "bility": 1833,
      "community": 1834,
      "called": 1835,
      "issue": 1836,
      "public": 1837,
      "product": 1838,
      "russia": 1839,
      "glass": 1840,
      "brown": 1841,
      "three": 1842,
      "cir": 1843,
      "cant": 1844,
      "dar": 1845,
      "fb": 1846,
      "fy": 1847,
      "flight": 1848,
      "gone": 1849,
      "mil": 1850,
      "nh": 1851,
      "nom": 1852,
      "pra": 1853,
      "sale": 1854,
      "tw": 1855,
      "ona": 1856,
      "remin": 1857,
      "represent": 1858,
      "ency": 1859,
      "alter": 1860,
      "orig": 1861,
      "educ": 1862,
      "chel": 1863,
      "unt": 1864,
      "icle": 1865,
      "cook": 1866,
      "dem": 1867,
      "goog": 1868,
      "keting": 1869,
      "near": 1870,
      "ural": 1871,
      "bear": 1872,
      "become": 1873,
      "apo": 1874,
      "holi": 1875,
      "fest": 1876,
      "sof": 1877,
      "exist": 1878,
      "fully": 1879,
      "paid": 1880,
      "bert": 1881,
      "scar": 1882,
      "winning": 1883,
      "fied": 1884,
      "showing": 1885,
      "folk": 1886,
      "buck": 1887,
      "clin": 1888,
      "standing": 1889,
      "staff": 1890,
      "parking": 1891,
      "smart": 1892,
      "here": 1893,
      "mission": 1894,
      "spirit": 1895,
      "block": 1896,
      "officially": 1897,
      "message": 1898,
      "theresistance": 1899,
      "jersey": 1900,
      "savage": 1901,
      "dm": 1902,
      "gb": 1903,
      "glo": 1904,
      "hall": 1905,
      "ki": 1906,
      "lat": 1907,
      "ppl": 1908,
      "yr": 1909,
      "inside": 1910,
      "arm": 1911,
      "album": 1912,
      "death": 1913,
      "detail": 1914,
      "sister": 1915,
      "ations": 1916,
      "atest": 1917,
      "missed": 1918,
      "micha": 1919,
      "greatest": 1920,
      "marketing": 1921,
      "seeing": 1922,
      "aught": 1923,
      "women": 1924,
      "scene": 1925,
      "reality": 1926,
      "justice": 1927,
      "odisha": 1928,
      "airport": 1929,
      "battle": 1930,
      "christmas": 1931,
      "possible": 1932,
      "straight": 1933,
      "chicken": 1934,
      "patriot": 1935,
      "instead": 1936,
      "imagine": 1937,
      "reminder": 1938,
      "bing": 1939,
      "bom": 1940,
      "fur": 1941,
      "ray": 1942,
      "rad": 1943,
      "rup": 1944,
      "td": 1945,
      "ane": 1946,
      "touch": 1947,
      "tee": 1948,
      "soul": 1949,
      "andom": 1950,
      "bound": 1951,
      "program": 1952,
      "cake": 1953,
      "iphone": 1954,
      "mini": 1955,
      "flor": 1956,
      "dram": 1957,
      "cali": 1958,
      "political": 1959,
      "hunter": 1960,
      "wednesdaywisdom": 1961,
      "memory": 1962,
      "crowd": 1963,
      "chicago": 1964,
      "22": 1965,
      "ai": 1966,
      "ash": 1967,
      "bright": 1968,
      "bjp": 1969,
      "camp": 1970,
      "fig": 1971,
      "gs": 1972,
      "hack": 1973,
      "ient": 1974,
      "pul": 1975,
      "piz": 1976,
      "ron": 1977,
      "sick": 1978,
      "tin": 1979,
      "wine": 1980,
      "online": 1981,
      "stri": 1982,
      "atlan": 1983,
      "ali": 1984,
      "alone": 1985,
      "thi": 1986,
      "advice": 1987,
      "nel": 1988,
      "beach": 1989,
      "ention": 1990,
      "appe": 1991,
      "tiger": 1992,
      "taken": 1993,
      "pose": 1994,
      "heard": 1995,
      "price": 1996,
      "pract": 1997,
      "nobody": 1998,
      "fox": 1999,
      "naren": 2000,
      "science": 2001,
      "intend": 2002,
      "choice": 2003,
      "talent": 2004,
      "donaldtrump": 2005,
      "clearly": 2006,
      "honest": 2007,
      "middle": 2008,
      "mexico": 2009,
      "beyond": 2010,
      "exactly": 2011,
      "holiday": 2012,
      "michael": 2013,
      "atlanta": 2014,
      "90": 2015,
      "aver": 2016,
      "aff": 2017,
      "bli": 2018,
      "bank": 2019,
      "bell": 2020,
      "brain": 2021,
      "due": 2022,
      "ior": 2023,
      "idi": 2024,
      "iled": 2025,
      "lm": 2026,
      "lunch": 2027,
      "nam": 2028,
      "ert": 2029,
      "ino": 2030,
      "arian": 2031,
      "ork": 2032,
      "choo": 2033,
      "itude": 2034,
      "unk": 2035,
      "ically": 2036,
      "round": 2037,
      "deep": 2038,
      "gop": 2039,
      "beer": 2040,
      "mass": 2041,
      "posed": 2042,
      "bob": 2043,
      "bour": 2044,
      "convers": 2045,
      "concer": 2046,
      "hash": 2047,
      "market": 2048,
      "premi": 2049,
      "extre": 2050,
      "prin": 2051,
      "ida": 2052,
      "ford": 2053,
      "scri": 2054,
      "episo": 2055,
      "ooo": 2056,
      "friendship": 2057,
      "traffic": 2058,
      "realize": 2059,
      "follo": 2060,
      "started": 2061,
      "warm": 2062,
      "crush": 2063,
      "favour": 2064,
      "after": 2065,
      "muslim": 2066,
      "nature": 2067,
      "lucky": 2068,
      "difference": 2069,
      "appreciate": 2070,
      "continue": 2071,
      "youtube": 2072,
      "figure": 2073,
      "episode": 2074,
      "ail": 2075,
      "catch": 2076,
      "cross": 2077,
      "dn": 2078,
      "eating": 2079,
      "hang": 2080,
      "mod": 2081,
      "nintend": 2082,
      "uri": 2083,
      "era": 2084,
      "reach": 2085,
      "logy": 2086,
      "chine": 2087,
      "chall": 2088,
      "icon": 2089,
      "vest": 2090,
      "tru": 2091,
      "ulti": 2092,
      "dig": 2093,
      "dio": 2094,
      "contro": 2095,
      "conference": 2096,
      "haw": 2097,
      "ison": 2098,
      "joe": 2099,
      "bae": 2100,
      "pak": 2101,
      "cheese": 2102,
      "fresh": 2103,
      "stem": 2104,
      "interview": 2105,
      "biggest": 2106,
      "ized": 2107,
      "voice": 2108,
      "mondaymotivation": 2109,
      "driver": 2110,
      "native": 2111,
      "study": 2112,
      "ps4": 2113,
      "dinner": 2114,
      "inspiration": 2115,
      "photography": 2116,
      "strugg": 2117,
      "original": 2118,
      "pizza": 2119,
      "practice": 2120,
      "favourite": 2121,
      "70": 2122,
      "cis": 2123,
      "dating": 2124,
      "eff": 2125,
      "mill": 2126,
      "rally": 2127,
      "sl": 2128,
      "site": 2129,
      "whi": 2130,
      "insp": 2131,
      "ange": 2132,
      "lous": 2133,
      "cow": 2134,
      "toon": 2135,
      "trust": 2136,
      "apart": 2137,
      "hous": 2138,
      "female": 2139,
      "boo": 2140,
      "promi": 2141,
      "project": 2142,
      "yep": 2143,
      "forgot": 2144,
      "happens": 2145,
      "happiness": 2146,
      "file": 2147,
      "played": 2148,
      "david": 2149,
      "sunset": 2150,
      "inaugural": 2151,
      "priv": 2152,
      "196": 2153,
      "laughing": 2154,
      "goals": 2155,
      "packer": 2156,
      "hurt": 2157,
      "window": 2158,
      "felt": 2159,
      "building": 2160,
      "flower": 2161,
      "google": 2162,
      "aughter": 2163,
      "conversation": 2164,
      "3rd": 2165,
      "45": 2166,
      "cc": 2167,
      "cing": 2168,
      "cred": 2169,
      "daughter": 2170,
      "gent": 2171,
      "hr": 2172,
      "jes": 2173,
      "kar": 2174,
      "mb": 2175,
      "ml": 2176,
      "pse": 2177,
      "york": 2178,
      "rele": 2179,
      "release": 2180,
      "stun": 2181,
      "that": 2182,
      "met": 2183,
      "its": 2184,
      "decid": 2185,
      "ride": 2186,
      "shi": 2187,
      "shine": 2188,
      "ado": 2189,
      "hollywood": 2190,
      "tip": 2191,
      "weight": 2192,
      "sim": 2193,
      "spn": 2194,
      "tage": 2195,
      "pol": 2196,
      "ates": 2197,
      "bos": 2198,
      "forward": 2199,
      "perfor": 2200,
      "trumpinauguration": 2201,
      "needed": 2202,
      "crew": 2203,
      "hahahaha": 2204,
      "write": 2205,
      "skill": 2206,
      "others": 2207,
      "draw": 2208,
      "langu": 2209,
      "driving": 2210,
      "appropri": 2211,
      "experience": 2212,
      "expect": 2213,
      "euro": 2214,
      "absolutely": 2215,
      "includ": 2216,
      "animal": 2217,
      "extreme": 2218,
      "26": 2219,
      "28": 2220,
      "bang": 2221,
      "bbc": 2222,
      "cro": 2223,
      "cul": 2224,
      "dat": 2225,
      "eli": 2226,
      "gl": 2227,
      "gal": 2228,
      "ime": 2229,
      "igh": 2230,
      "jam": 2231,
      "lli": 2232,
      "tbt": 2233,
      "uce": 2234,
      "ustr": 2235,
      "ann": 2236,
      "stone": 2237,
      "athe": 2238,
      "alive": 2239,
      "ica": 2240,
      "cop": 2241,
      "code": 2242,
      "secur": 2243,
      "search": 2244,
      "being": 2245,
      "soli": 2246,
      "poke": 2247,
      "profe": 2248,
      "exam": 2249,
      "funnymemes": 2250,
      "grad": 2251,
      "qui": 2252,
      "brand": 2253,
      "istan": 2254,
      "cartoon": 2255,
      "superbowl": 2256,
      "follower": 2257,
      "missing": 2258,
      "draft": 2259,
      "shoot": 2260,
      "humor": 2261,
      "treat": 2262,
      "stock": 2263,
      "stream": 2264,
      "opening": 2265,
      "eeee": 2266,
      "delay": 2267,
      "kinda": 2268,
      "13th": 2269,
      "basket": 2270,
      "austral": 2271,
      "campa": 2272,
      "learn": 2273,
      "prayer": 2274,
      "marriage": 2275,
      "trending": 2276,
      "clinton": 2277,
      "idiot": 2278,
      "houston": 2279,
      "35": 2280,
      "bon": 2281,
      "dir": 2282,
      "dance": 2283,
      "ea": 2284,
      "ei": 2285,
      "east": 2286,
      "fra": 2287,
      "five": 2288,
      "ific": 2289,
      "rum": 2290,
      "rick": 2291,
      "swe": 2292,
      "tory": 2293,
      "vot": 2294,
      "thro": 2295,
      "acade": 2296,
      "shad": 2297,
      "iling": 2298,
      "tes": 2299,
      "feed": 2300,
      "femin": 2301,
      "major": 2302,
      "proof": 2303,
      "yee": 2304,
      "mouth": 2305,
      "viol": 2306,
      "raid": 2307,
      "looked": 2308,
      "journ": 2309,
      "fort": 2310,
      "impro": 2311,
      "igan": 2312,
      "doctor": 2313,
      "whate": 2314,
      "english": 2315,
      "rule": 2316,
      "broken": 2317,
      "selfies": 2318,
      "justin": 2319,
      "fitness": 2320,
      "scot": 2321,
      "studio": 2322,
      "problems": 2323,
      "russian": 2324,
      "vision": 2325,
      "lord": 2326,
      "changed": 2327,
      "alternative": 2328,
      "education": 2329,
      "dramodi": 2330,
      "narendramodi": 2331,
      "truly": 2332,
      "decided": 2333,
      "language": 2334,
      "journal": 2335,
      "500": 2336,
      "60": 2337,
      "bay": 2338,
      "cnn": 2339,
      "fu": 2340,
      "fli": 2341,
      "father": 2342,
      "gand": 2343,
      "gger": 2344,
      "hus": 2345,
      "hen": 2346,
      "hmm": 2347,
      "jap": 2348,
      "kin": 2349,
      "knew": 2350,
      "kore": 2351,
      "pu": 2352,
      "pin": 2353,
      "random": 2354,
      "inger": 2355,
      "ener": 2356,
      "enge": 2357,
      "aly": 2358,
      "itor": 2359,
      "ication": 2360,
      "velo": 2361,
      "shut": 2362,
      "shoo": 2363,
      "tran": 2364,
      "fear": 2365,
      "western": 2366,
      "sible": 2367,
      "spic": 2368,
      "splay": 2369,
      "worst": 2370,
      "ander": 2371,
      "ope": 2372,
      "mike": 2373,
      "thankful": 2374,
      "allstar": 2375,
      "ised": 2376,
      "gave": 2377,
      "gry": 2378,
      "dood": 2379,
      "amaz": 2380,
      "giant": 2381,
      "obam": 2382,
      "freed": 2383,
      "media": 2384,
      "angel": 2385,
      "bird": 2386,
      "system": 2387,
      "disney": 2388,
      "james": 2389,
      "gym": 2390,
      "busy": 2391,
      "born": 2392,
      "fighting": 2393,
      "thursdaythoughts": 2394,
      "celebrate": 2395,
      "arrived": 2396,
      "intellig": 2397,
      "califor": 2398,
      "performance": 2399,
      "security": 2400,
      "japan": 2401,
      "avo": 2402,
      "bts": 2403,
      "fill": 2404,
      "gas": 2405,
      "gate": 2406,
      "gaming": 2407,
      "ith": 2408,
      "nu": 2409,
      "nan": 2410,
      "named": 2411,
      "pd": 2412,
      "pure": 2413,
      "sr": 2414,
      "sme": 2415,
      "smar": 2416,
      "wil": 2417,
      "yel": 2418,
      "ern": 2419,
      "ination": 2420,
      "invest": 2421,
      "repor": 2422,
      "alex": 2423,
      "chi": 2424,
      "cher": 2425,
      "china": 2426,
      "colo": 2427,
      "gover": 2428,
      "accur": 2429,
      "rid": 2430,
      "ury": 2431,
      "feat": 2432,
      "tific": 2433,
      "soc": 2434,
      "spend": 2435,
      "terrible": 2436,
      "disc": 2437,
      "worry": 2438,
      "migr": 2439,
      "milit": 2440,
      "thern": 2441,
      "peri": 2442,
      "paint": 2443,
      "everyday": 2444,
      "wise": 2445,
      "type": 2446,
      "makeup": 2447,
      "trash": 2448,
      "playoff": 2449,
      "given": 2450,
      "brought": 2451,
      "steal": 2452,
      "steel": 2453,
      "international": 2454,
      "skin": 2455,
      "helping": 2456,
      "exciting": 2457,
      "199": 2458,
      "flu": 2459,
      "commun": 2460,
      "area": 2461,
      "facts": 2462,
      "harry": 2463,
      "senior": 2464,
      "current": 2465,
      "turned": 2466,
      "plane": 2467,
      "classic": 2468,
      "bridge": 2469,
      "christian": 2470,
      "inspiring": 2471,
      "victory": 2472,
      "response": 2473,
      "painting": 2474,
      "explain": 2475,
      "magic": 2476,
      "accep": 2477,
      "shocked": 2478,
      "global": 2479,
      "choose": 2480,
      "hashtag": 2481,
      "challenge": 2482,
      "effort": 2483,
      "stunning": 2484,
      "basketball": 2485,
      "cit": 2486,
      "dal": 2487,
      "epic": 2488,
      "ged": 2489,
      "lations": 2490,
      "nt": 2491,
      "s2017": 2492,
      "till": 2493,
      "tshirt": 2494,
      "inion": 2495,
      "inthe": 2496,
      "ret": 2497,
      "stan": 2498,
      "alert": 2499,
      "organ": 2500,
      "thous": 2501,
      "loc": 2502,
      "lover": 2503,
      "lion": 2504,
      "chand": 2505,
      "cot": 2506,
      "develo": 2507,
      "amo": 2508,
      "lying": 2509,
      "ador": 2510,
      "neg": 2511,
      "iler": 2512,
      "hoo": 2513,
      "feature": 2514,
      "cept": 2515,
      "sper": 2516,
      "lake": 2517,
      "laught": 2518,
      "ateful": 2519,
      "andy": 2520,
      "boston": 2521,
      "rare": 2522,
      "mary": 2523,
      "grateful": 2524,
      "known": 2525,
      "letter": 2526,
      "crelations": 2527,
      "engine": 2528,
      "broke": 2529,
      "ample": 2530,
      "excell": 2531,
      "170": 2532,
      "giveaway": 2533,
      "cloud": 2534,
      "tree": 2535,
      "harmon": 2536,
      "climate": 2537,
      "lesson": 2538,
      "fran": 2539,
      "walking": 2540,
      "natural": 2541,
      "score": 2542,
      "asked": 2543,
      "condition": 2544,
      "ground": 2545,
      "squad": 2546,
      "jackson": 2547,
      "emplo": 2548,
      "deserve": 2549,
      "beginning": 2550,
      "target": 2551,
      "publicrelations": 2552,
      "lmfa": 2553,
      "private": 2554,
      "credit": 2555,
      "jesus": 2556,
      "appropriate": 2557,
      "campaign": 2558,
      "shadow": 2559,
      "freedom": 2560,
      "soccer": 2561,
      "27": 2562,
      "5th": 2563,
      "blow": 2564,
      "cen": 2565,
      "gm": 2566,
      "nar": 2567,
      "nia": 2568,
      "pon": 2569,
      "punch": 2570,
      "race": 2571,
      "yard": 2572,
      "inno": 2573,
      "onto": 2574,
      "review": 2575,
      "anger": 2576,
      "station": 2577,
      "along": 2578,
      "logo": 2579,
      "loss": 2580,
      "mel": 2581,
      "coin": 2582,
      "role": 2583,
      "sea": 2584,
      "session": 2585,
      "des": 2586,
      "degree": 2587,
      "ami": 2588,
      "ament": 2589,
      "shout": 2590,
      "adam": 2591,
      "ument": 2592,
      "sou": 2593,
      "master": 2594,
      "webs": 2595,
      "lab": 2596,
      "opinion": 2597,
      "progress": 2598,
      "moving": 2599,
      "haik": 2600,
      "nazi": 2601,
      "scor": 2602,
      "everybody": 2603,
      "when": 2604,
      "rts": 2605,
      "rug": 2606,
      "yoga": 2607,
      "shame": 2608,
      "partner": 2609,
      "starwar": 2610,
      "helpful": 2611,
      "legal": 2612,
      "company": 2613,
      "enemy": 2614,
      "lane": 2615,
      "overall": 2616,
      "normal": 2617,
      "covered": 2618,
      "delhi": 2619,
      "powerful": 2620,
      "addic": 2621,
      "rush": 2622,
      "breakfast": 2623,
      "graph": 2624,
      "training": 2625,
      "tried": 2626,
      "avail": 2627,
      "auspol": 2628,
      "blame": 2629,
      "confid": 2630,
      "cident": 2631,
      "kkkk": 2632,
      "positive": 2633,
      "from": 2634,
      "florida": 2635,
      "thisis": 2636,
      "concert": 2637,
      "control": 2638,
      "pokemon": 2639,
      "voted": 2640,
      "whatever": 2641,
      "military": 2642,
      "period": 2643,
      "laughter": 2644,
      "haiku": 2645,
      "ax": 2646,
      "aust": 2647,
      "dd": 2648,
      "globe": 2649,
      "iam": 2650,
      "iri": 2651,
      "jun": 2652,
      "math": 2653,
      "ored": 2654,
      "rap": 2655,
      "sket": 2656,
      "sending": 2657,
      "switch": 2658,
      "wwe": 2659,
      "wol": 2660,
      "info": 2661,
      "rela": 2662,
      "stit": 2663,
      "ars": 2664,
      "lee": 2665,
      "thats": 2666,
      "acon": 2667,
      "neigh": 2668,
      "verse": 2669,
      "entire": 2670,
      "weird": 2671,
      "size": 2672,
      "spent": 2673,
      "gear": 2674,
      "bout": 2675,
      "bought": 2676,
      "profile": 2677,
      "vibe": 2678,
      "noon": 2679,
      "grace": 2680,
      "imp": 2681,
      "item": 2682,
      "bestcover": 2683,
      "wide": 2684,
      "leaving": 2685,
      "intro": 2686,
      "speci": 2687,
      "achie": 2688,
      "gers": 2689,
      "crack": 2690,
      "headed": 2691,
      "attention": 2692,
      "posted": 2693,
      "fridayfeeling": 2694,
      "afc": 2695,
      "aging": 2696,
      "channel": 2697,
      "kidding": 2698,
      "charge": 2699,
      "1000": 2700,
      "package": 2701,
      "hug": 2702,
      "pression": 2703,
      "collection": 2704,
      "court": 2705,
      "happening": 2706,
      "flag": 2707,
      "defense": 2708,
      "potus": 2709,
      "racist": 2710,
      "democracy": 2711,
      "writer": 2712,
      "pakistan": 2713,
      "struggle": 2714,
      "inspired": 2715,
      "promise": 2716,
      "academic": 2717,
      "doodle": 2718,
      "chandler": 2719,
      "website": 2720,
      "esc": 2721,
      "gay": 2722,
      "gard": 2723,
      "jon": 2724,
      "jay": 2725,
      "jim": 2726,
      "kat": 2727,
      "nfc": 2728,
      "path": 2729,
      "tu": 2730,
      "vy": 2731,
      "willi": 2732,
      "xit": 2733,
      "yup": 2734,
      "zer": 2735,
      "remind": 2736,
      "recru": 2737,
      "ato": 2738,
      "atic": 2739,
      "leman": 2740,
      "ordin": 2741,
      "lose": 2742,
      "kes": 2743,
      "hoc": 2744,
      "owner": 2745,
      "max": 2746,
      "weare": 2747,
      "six": 2748,
      "spa": 2749,
      "spread": 2750,
      "george": 2751,
      "poster": 2752,
      "bollywood": 2753,
      "prepa": 2754,
      "jour": 2755,
      "goodbye": 2756,
      "marching": 2757,
      "workout": 2758,
      "brad": 2759,
      "brut": 2760,
      "serv": 2761,
      "coln": 2762,
      "broad": 2763,
      "partic": 2764,
      "pride": 2765,
      "flat": 2766,
      "smh": 2767,
      "canada": 2768,
      "afric": 2769,
      "putting": 2770,
      "aldub": 2771,
      "survi": 2772,
      "zzard": 2773,
      "memorial": 2774,
      "tuesdaythoughts": 2775,
      "bringing": 2776,
      "selling": 2777,
      "shopping": 2778,
      "lincoln": 2779,
      "schol": 2780,
      "whyi": 2781,
      "protect": 2782,
      "supporting": 2783,
      "murder": 2784,
      "extremely": 2785,
      "profession": 2786,
      "california": 2787,
      "smarta": 2788,
      "excellent": 2789,
      "employee": 2790,
      "starwars": 2791,
      "william": 2792,
      "aven": 2793,
      "bid": 2794,
      "camer": 2795,
      "ds": 2796,
      "dum": 2797,
      "dry": 2798,
      "equality": 2799,
      "flip": 2800,
      "gst": 2801,
      "gri": 2802,
      "gorge": 2803,
      "isi": 2804,
      "jones": 2805,
      "kh": 2806,
      "kiss": 2807,
      "link": 2808,
      "mac": 2809,
      "matt": 2810,
      "none": 2811,
      "ose": 2812,
      "rr": 2813,
      "sli": 2814,
      "twin": 2815,
      "uh": 2816,
      "uing": 2817,
      "uation": 2818,
      "wy": 2819,
      "will": 2820,
      "reli": 2821,
      "stal": 2822,
      "stad": 2823,
      "allow": 2824,
      "lect": 2825,
      "ord": 2826,
      "lier": 2827,
      "chur": 2828,
      "icy": 2829,
      "ican": 2830,
      "cost": 2831,
      "coast": 2832,
      "vey": 2833,
      "gol": 2834,
      "accor": 2835,
      "tough": 2836,
      "ette": 2837,
      "very": 2838,
      "beard": 2839,
      "febr": 2840,
      "sold": 2841,
      "taco": 2842,
      "died": 2843,
      "rah": 2844,
      "article": 2845,
      "pressed": 2846,
      "print": 2847,
      "saint": 2848,
      "saving": 2849,
      "imate": 2850,
      "immigr": 2851,
      "auto": 2852,
      "nash": 2853,
      "perform": 2854,
      "paul": 2855,
      "udge": 2856,
      "cious": 2857,
      "mental": 2858,
      "useful": 2859,
      "reng": 2860,
      "carol": 2861,
      "cream": 2862,
      "dare": 2863,
      "brexit": 2864,
      "quoteoftheday": 2865,
      "chocol": 2866,
      "warri": 2867,
      "boyfriend": 2868,
      "starter": 2869,
      "parade": 2870,
      "following": 2871,
      "sarcasm": 2872,
      "heading": 2873,
      "attitude": 2874,
      "197": 2875,
      "statement": 2876,
      "words": 2877,
      "keeping": 2878,
      "setting": 2879,
      "telling": 2880,
      "calling": 2881,
      "gging": 2882,
      "assist": 2883,
      "retweets": 2884,
      "sleeping": 2885,
      "flash": 2886,
      "destroy": 2887,
      "silly": 2888,
      "photographer": 2889,
      "fantasy": 2890,
      "softwitter": 2891,
      "venture": 2892,
      "married": 2893,
      "expected": 2894,
      "entertain": 2895,
      "tune": 2896,
      "delivery": 2897,
      "terrorist": 2898,
      "secretary": 2899,
      "emotion": 2900,
      "result": 2901,
      "nbavote": 2902,
      "puppy": 2903,
      "premier": 2904,
      "including": 2905,
      "govern": 2906,
      "gorgeous": 2907,
      "february": 2908,
      "29": 2909,
      "33": 2910,
      "avi": 2911,
      "bath": 2912,
      "fren": 2913,
      "finger": 2914,
      "ging": 2915,
      "hid": 2916,
      "ius": 2917,
      "iel": 2918,
      "jr": 2919,
      "jen": 2920,
      "jump": 2921,
      "jung": 2922,
      "kim": 2923,
      "mt": 2924,
      "map": 2925,
      "phi": 2926,
      "sma": 2927,
      "swi": 2928,
      "slow": 2929,
      "uber": 2930,
      "vac": 2931,
      "zen": 2932,
      "ining": 2933,
      "anni": 2934,
      "thor": 2935,
      "losing": 2936,
      "liz": 2937,
      "ito": 2938,
      "deb": 2939,
      "demon": 2940,
      "accident": 2941,
      "amwriting": 2942,
      "ris": 2943,
      "river": 2944,
      "lyn": 2945,
      "tout": 2946,
      "total": 2947,
      "adop": 2948,
      "nes": 2949,
      "verb": 2950,
      "tear": 2951,
      "teen": 2952,
      "how": 2953,
      "host": 2954,
      "tire": 2955,
      "soci": 2956,
      "sia": 2957,
      "spr": 2958,
      "omy": 2959,
      "heat": 2960,
      "mobi": 2961,
      "consin": 2962,
      "compa": 2963,
      "common": 2964,
      "plus": 2965,
      "isra": 2966,
      "islam": 2967,
      "funnyquotes": 2968,
      "saf": 2969,
      "saved": 2970,
      "illustr": 2971,
      "quite": 2972,
      "woo": 2973,
      "indus": 2974,
      "bernie": 2975,
      "supre": 2976,
      "cia": 2977,
      "bron": 2978,
      "irline": 2979,
      "girlfriend": 2980,
      "showed": 2981,
      "create": 2982,
      "counter": 2983,
      "standup": 2984,
      "duck": 2985,
      "warning": 2986,
      "warming": 2987,
      "signed": 2988,
      "bike": 2989,
      "attend": 2990,
      "198": 2991,
      "cancel": 2992,
      "value": 2993,
      "within": 2994,
      "aaaa": 2995,
      "danger": 2996,
      "content": 2997,
      "wisconsin": 2998,
      "enjoying": 2999,
      "batman": 3000,
      "honored": 3001,
      "popular": 3002,
      "appreciation": 3003,
      "appreciated": 3004,
      "crime": 3005,
      "flood": 3006,
      "holding": 3007,
      "interesting": 3008,
      "asian": 3009,
      "indeed": 3010,
      "throwback": 3011,
      "competition": 3012,
      "simple": 3013,
      "govt": 3014,
      "strike": 3015,
      "blizzard": 3016,
      "afternoon": 3017,
      "released": 3018,
      "australia": 3019,
      "either": 3020,
      "gandhi": 3021,
      "energy": 3022,
      "shooting": 3023,
      "yellow": 3024,
      "accurate": 3025,
      "tification": 3026,
      "central": 3027,
      "available": 3028,
      "austin": 3029,
      "sketch": 3030,
      "hockey": 3031,
      "journey": 3032,
      "brutal": 3033,
      "scholar": 3034,
      "whyimarch": 3035,
      "according": 3036,
      "150": 3037,
      "az": 3038,
      "aire": 3039,
      "again": 3040,
      "bday": 3041,
      "bby": 3042,
      "billion": 3043,
      "cin": 3044,
      "cil": 3045,
      "cell": 3046,
      "dh": 3047,
      "dun": 3048,
      "emer": 3049,
      "egg": 3050,
      "fle": 3051,
      "gender": 3052,
      "ier": 3053,
      "jok": 3054,
      "kil": 3055,
      "khan": 3056,
      "nas": 3057,
      "nick": 3058,
      "pg": 3059,
      "pac": 3060,
      "pend": 3061,
      "pant": 3062,
      "sb": 3063,
      "yer": 3064,
      "resc": 3065,
      "replace": 3066,
      "recent": 3067,
      "streng": 3068,
      "ensive": 3069,
      "alo": 3070,
      "alab": 3071,
      "thr": 3072,
      "edge": 3073,
      "local": 3074,
      "liar": 3075,
      "liked": 3076,
      "metal": 3077,
      "coll": 3078,
      "rose": 3079,
      "roman": 3080,
      "sean": 3081,
      "deci": 3082,
      "etic": 3083,
      "adine": 3084,
      "illy": 3085,
      "truck": 3086,
      "ential": 3087,
      "april": 3088,
      "tea": 3089,
      "tesy": 3090,
      "holy": 3091,
      "fection": 3092,
      "tim": 3093,
      "sour": 3094,
      "spam": 3095,
      "las": 3096,
      "lash": 3097,
      "taste": 3098,
      "diet": 3099,
      "oper": 3100,
      "bol": 3101,
      "concept": 3102,
      "raw": 3103,
      "raft": 3104,
      "mis": 3105,
      "mich": 3106,
      "caffe": 3107,
      "thankyou": 3108,
      "pres": 3109,
      "expen": 3110,
      "gran": 3111,
      "goodnight": 3112,
      "2015": 3113,
      "ief": 3114,
      "pair": 3115,
      "knowing": 3116,
      "scrip": 3117,
      "thes": 3118,
      "doc": 3119,
      "mug": 3120,
      "friends": 3121,
      "friendly": 3122,
      "fif": 3123,
      "trade": 3124,
      "lets": 3125,
      "brook": 3126,
      "versary": 3127,
      "urnament": 3128,
      "bigger": 3129,
      "candi": 3130,
      "truestory": 3131,
      "claim": 3132,
      "hearing": 3133,
      "certain": 3134,
      "senator": 3135,
      "wedding": 3136,
      "blood": 3137,
      "captain": 3138,
      "brilli": 3139,
      "courtesy": 3140,
      "custom": 3141,
      "announced": 3142,
      "killing": 3143,
      "invol": 3144,
      "limited": 3145,
      "worthy": 3146,
      "notice": 3147,
      "square": 3148,
      "virgin": 3149,
      "seattle": 3150,
      "deserves": 3151,
      "baseball": 3152,
      "ariana": 3153,
      "massive": 3154,
      "modern": 3155,
      "digital": 3156,
      "korea": 3157,
      "intelligence": 3158,
      "thousand": 3159,
      "lmfao": 3160,
      "relax": 3161,
      "church": 3162,
      "warrior": 3163,
      "government": 3164,
      "mobile": 3165,
      "industry": 3166,
      "strength": 3167,
      "99": 3168,
      "aar": 3169,
      "bh": 3170,
      "ctr": 3171,
      "dj": 3172,
      "easi": 3173,
      "fac": 3174,
      "gor": 3175,
      "gil": 3176,
      "gta": 3177,
      "jin": 3178,
      "kan": 3179,
      "md": 3180,
      "nap": 3181,
      "nope": 3182,
      "oli": 3183,
      "pas": 3184,
      "rank": 3185,
      "rump": 3186,
      "tl": 3187,
      "ucan": 3188,
      "zine": 3189,
      "ery": 3190,
      "error": 3191,
      "inch": 3192,
      "inappropriate": 3193,
      "onwashington": 3194,
      "usion": 3195,
      "attr": 3196,
      "atter": 3197,
      "loy": 3198,
      "meal": 3199,
      "chart": 3200,
      "active": 3201,
      "shah": 3202,
      "tof": 3203,
      "tobe": 3204,
      "tool": 3205,
      "gho": 3206,
      "adver": 3207,
      "admin": 3208,
      "adventure": 3209,
      "uring": 3210,
      "appoint": 3211,
      "machine": 3212,
      "web": 3213,
      "sie": 3214,
      "sig": 3215,
      "siri": 3216,
      "sight": 3217,
      "spending": 3218,
      "spital": 3219,
      "lazy": 3220,
      "poet": 3221,
      "pool": 3222,
      "dist": 3223,
      "disa": 3224,
      "andre": 3225,
      "ops": 3226,
      "bored": 3227,
      "mode": 3228,
      "have": 3229,
      "hail": 3230,
      "caught": 3231,
      "ldraft": 3232,
      "example": 3233,
      "island": 3234,
      "fare": 3235,
      "gag": 3236,
      "bai": 3237,
      "wave": 3238,
      "bestmusic": 3239,
      "everywhere": 3240,
      "fish": 3241,
      "speaking": 3242,
      "created": 3243,
      "chester": 3244,
      "ohs": 3245,
      "womensmarchonwashington": 3246,
      "anymore": 3247,
      "shade": 3248,
      "standard": 3249,
      "steve": 3250,
      "stake": 3251,
      "followed": 3252,
      "prison": 3253,
      "voting": 3254,
      "earlier": 3255,
      "shoe": 3256,
      "clothes": 3257,
      "clipse": 3258,
      "craft": 3259,
      "solution": 3260,
      "joined": 3261,
      "formation": 3262,
      "hotel": 3263,
      "large": 3264,
      "crisis": 3265,
      "ationals": 3266,
      "position": 3267,
      "accept": 3268,
      "rilled": 3269,
      "title": 3270,
      "surprise": 3271,
      "dollar": 3272,
      "confirmed": 3273,
      "demand": 3274,
      "bucks": 3275,
      "honestly": 3276,
      "while": 3277,
      "cowboy": 3278,
      "gentleman": 3279,
      "dirty": 3280,
      "improve": 3281,
      "flix": 3282,
      "spicer": 3283,
      "amazon": 3284,
      "engineer": 3285,
      "neighbor": 3286,
      "garden": 3287,
      "professional": 3288,
      "anniversary": 3289,
      "safety": 3290,
      "brilliant": 3291,
      "bestmusicvideo": 3292,
      "300": 3293,
      "46": 3294,
      "51": 3295,
      "aware": 3296,
      "airline": 3297,
      "bacon": 3298,
      "drug": 3299,
      "fat": 3300,
      "fed": 3301,
      "gf": 3302,
      "gus": 3303,
      "gamed": 3304,
      "ival": 3305,
      "ified": 3306,
      "jac": 3307,
      "kri": 3308,
      "multi": 3309,
      "oil": 3310,
      "oscar": 3311,
      "push": 3312,
      "ration": 3313,
      "sus": 3314,
      "sac": 3315,
      "sas": 3316,
      "sud": 3317,
      "swear": 3318,
      "tap": 3319,
      "ulous": 3320,
      "vor": 3321,
      "wro": 3322,
      "wet": 3323,
      "zel": 3324,
      "zone": 3325,
      "iny": 3326,
      "strip": 3327,
      "atable": 3328,
      "thy": 3329,
      "third": 3330,
      "thrilled": 3331,
      "lov": 3332,
      "lia": 3333,
      "cogn": 3334,
      "copy": 3335,
      "robert": 3336,
      "sem": 3337,
      "dev": 3338,
      "goat": 3339,
      "kee": 3340,
      "amy": 3341,
      "tournament": 3342,
      "trad": 3343,
      "bean": 3344,
      "apon": 3345,
      "hospital": 3346,
      "feb": 3347,
      "weapon": 3348,
      "tery": 3349,
      "poll": 3350,
      "asking": 3351,
      "opport": 3352,
      "boot": 3353,
      "moun": 3354,
      "commission": 3355,
      "mix": 3356,
      "greet": 3357,
      "cable": 3358,
      "plant": 3359,
      "exsand": 3360,
      "fave": 3361,
      "josh": 3362,
      "things": 3363,
      "seem": 3364,
      "berry": 3365,
      "supposed": 3366,
      "cist": 3367,
      "whats": 3368,
      "girlmeet": 3369,
      "tweeted": 3370,
      "ledge": 3371,
      "suffer": 3372,
      "sugar": 3373,
      "version": 3374,
      "crit": 3375,
      "snark": 3376,
      "complain": 3377,
      "izer": 3378,
      "izen": 3379,
      "195": 3380,
      "trophy": 3381,
      "sitting": 3382,
      "posting": 3383,
      "drama": 3384,
      "afraid": 3385,
      "jean": 3386,
      "genius": 3387,
      "currently": 3388,
      "relate": 3389,
      "relatable": 3390,
      "gged": 3391,
      "longer": 3392,
      "huh": 3393,
      "personal": 3394,
      "issa": 3395,
      "chris": 3396,
      "paying": 3397,
      "stronger": 3398,
      "dying": 3399,
      "oooooooo": 3400,
      "magazine": 3401,
      "inspirational": 3402,
      "lipstick": 3403,
      "celebration": 3404,
      "oswitch": 3405,
      "july": 3406,
      "confused": 3407,
      "learning": 3408,
      "memesdaily": 3409,
      "peaceful": 3410,
      "expert": 3411,
      "swim": 3412,
      "regular": 3413,
      "screenshot": 3414,
      "valentinesday": 3415,
      "sexual": 3416,
      "supporter": 3417,
      "effect": 3418,
      "completely": 3419,
      "twice": 3420,
      "festival": 3421,
      "average": 3422,
      "hanging": 3423,
      "nintendoswitch": 3424,
      "ps4share": 3425,
      "europe": 3426,
      "husband": 3427,
      "avoid": 3428,
      "location": 3429,
      "specially": 3430,
      "stadium": 3431,
      "society": 3432,
      "alabama": 3433,
      "expensive": 3434,
      "aaron": 3435,
      "wrote": 3436,
      "exsandohs": 3437,
      "44": 3438,
      "75": 3439,
      "ame": 3440,
      "ave": 3441,
      "bun": 3442,
      "bone": 3443,
      "bie": 3444,
      "cm": 3445,
      "cket": 3446,
      "dump": 3447,
      "eh": 3448,
      "eth": 3449,
      "eve": 3450,
      "econ": 3451,
      "especially": 3452,
      "fas": 3453,
      "fry": 3454,
      "gig": 3455,
      "ggest": 3456,
      "hint": 3457,
      "hater": 3458,
      "kno": 3459,
      "kik": 3460,
      "pc": 3461,
      "phe": 3462,
      "pump": 3463,
      "sd": 3464,
      "sens": 3465,
      "tat": 3466,
      "ule": 3467,
      "var": 3468,
      "wrest": 3469,
      "xd": 3470,
      "yan": 3471,
      "ered": 3472,
      "oned": 3473,
      "reward": 3474,
      "angry": 3475,
      "stro": 3476,
      "envir": 3477,
      "thet": 3478,
      "thru": 3479,
      "edin": 3480,
      "lif": 3481,
      "rod": 3482,
      "sever": 3483,
      "vega": 3484,
      "dess": 3485,
      "debut": 3486,
      "kelly": 3487,
      "ried": 3488,
      "ridic": 3489,
      "neck": 3490,
      "elder": 3491,
      "ilt": 3492,
      "beli": 3493,
      "becoming": 3494,
      "hop": 3495,
      "labor": 3496,
      "ups": 3497,
      "upcoming": 3498,
      "dia": 3499,
      "asing": 3500,
      "asure": 3501,
      "uten": 3502,
      "heaven": 3503,
      "yeg": 3504,
      "contr": 3505,
      "congress": 3506,
      "likefor": 3507,
      "pep": 3508,
      "peak": 3509,
      "mistake": 3510,
      "nology": 3511,
      "notification": 3512,
      "focus": 3513,
      "nasty": 3514,
      "otd": 3515,
      "hip": 3516,
      "actual": 3517,
      "wich": 3518,
      "they": 3519,
      "the100": 3520,
      "mont": 3521,
      "monster": 3522,
      "leaks": 3523,
      "tyler": 3524,
      "mention": 3525,
      "evil": 3526,
      "usted": 3527,
      "photoshop": 3528,
      "creative": 3529,
      "gif": 3530,
      "suggest": 3531,
      "county": 3532,
      "biased": 3533,
      "headline": 3534,
      "strate": 3535,
      "agency": 3536,
      "highlight": 3537,
      "drew": 3538,
      "arena": 3539,
      "closed": 3540,
      "putin": 3541,
      "stress": 3542,
      "wondering": 3543,
      "click": 3544,
      "walmart": 3545,
      "coverage": 3546,
      "belieber": 3547,
      "network": 3548,
      "classy": 3549,
      "scored": 3550,
      "elect": 3551,
      "asks": 3552,
      "daniel": 3553,
      "ordered": 3554,
      "victor": 3555,
      "latest": 3556,
      "diego": 3557,
      "lmaoo": 3558,
      "finest": 3559,
      "empty": 3560,
      "hurric": 3561,
      "bull": 3562,
      "turning": 3563,
      "leadership": 3564,
      "general": 3565,
      "flying": 3566,
      "ivity": 3567,
      "technology": 3568,
      "buddy": 3569,
      "secure": 3570,
      "sharing": 3571,
      "bomb": 3572,
      "rupt": 3573,
      "hunters": 3574,
      "pull": 3575,
      "princess": 3576,
      "dnc": 3577,
      "iconic": 3578,
      "alternativefacts": 3579,
      "journalist": 3580,
      "colour": 3581,
      "steelers": 3582,
      "communication": 3583,
      "citizen": 3584,
      "confidence": 3585,
      "irish": 3586,
      "introdu": 3587,
      "achieve": 3588,
      "particip": 3589,
      "camera": 3590,
      "golf": 3591,
      "illustration": 3592,
      "dangerous": 3593,
      "scholarship": 3594,
      "killed": 3595,
      "source": 3596,
      "michigan": 3597,
      "certainly": 3598,
      "ucanationals": 3599,
      "adverti": 3600,
      "opportunity": 3601,
      "environ": 3602,
      "hurricane": 3603,
      "2k": 3604,
      "36": 3605,
      "400": 3606,
      "bff": 3607,
      "bump": 3608,
      "cub": 3609,
      "dak": 3610,
      "duty": 3611,
      "gang": 3612,
      "judge": 3613,
      "jadine": 3614,
      "kay": 3615,
      "mama": 3616,
      "nin": 3617,
      "nws": 3618,
      "pj": 3619,
      "pad": 3620,
      "qb": 3621,
      "rb": 3622,
      "sj": 3623,
      "slay": 3624,
      "tan": 3625,
      "tay": 3626,
      "vas": 3627,
      "wat": 3628,
      "xi": 3629,
      "yum": 3630,
      "yall": 3631,
      "insan": 3632,
      "ony": 3633,
      "ress": 3634,
      "repe": 3635,
      "request": 3636,
      "recogn": 3637,
      "attemp": 3638,
      "orn": 3639,
      "orange": 3640,
      "thx": 3641,
      "thri": 3642,
      "edward": 3643,
      "melan": 3644,
      "unreal": 3645,
      "ician": 3646,
      "dean": 3647,
      "dete": 3648,
      "aca": 3649,
      "acc": 3650,
      "access": 3651,
      "shape": 3652,
      "toy": 3653,
      "ella": 3654,
      "urant": 3655,
      "ira": 3656,
      "hol": 3657,
      "sooooo": 3658,
      "maker": 3659,
      "spin": 3660,
      "spell": 3661,
      "launch": 3662,
      "gem": 3663,
      "distr": 3664,
      "process": 3665,
      "yea": 3666,
      "rae": 3667,
      "michel": 3668,
      "hai": 3669,
      "cared": 3670,
      "predic": 3671,
      "plac": 3672,
      "ising": 3673,
      "antly": 3674,
      "impress": 3675,
      "audi": 3676,
      "author": 3677,
      "somebody": 3678,
      "somewhere": 3679,
      "iest": 3680,
      "waste": 3681,
      "paren": 3682,
      "sci": 3683,
      "scam": 3684,
      "happybirthday": 3685,
      "athlete": 3686,
      "useless": 3687,
      "istration": 3688,
      "portland": 3689,
      "carry": 3690,
      "buff": 3691,
      "anyway": 3692,
      "held": 3693,
      "rude": 3694,
      "starbucks": 3695,
      "satl": 3696,
      "stranger": 3697,
      "drunk": 3698,
      "calm": 3699,
      "dragon": 3700,
      "cere": 3701,
      "highest": 3702,
      "shocking": 3703,
      "belief": 3704,
      "surround": 3705,
      "packed": 3706,
      "perfectly": 3707,
      "hyun": 3708,
      "planet": 3709,
      "ferr": 3710,
      "cutest": 3711,
      "joining": 3712,
      "penny": 3713,
      "toronto": 3714,
      "avy": 3715,
      "killer": 3716,
      "button": 3717,
      "cutie": 3718,
      "commitment": 3719,
      "celebrating": 3720,
      "burg": 3721,
      "burgh": 3722,
      "mcdonald": 3723,
      "palette": 3724,
      "learned": 3725,
      "racism": 3726,
      "vention": 3727,
      "mexican": 3728,
      "continuing": 3729,
      "region": 3730,
      "blessing": 3731,
      "pitch": 3732,
      "martin": 3733,
      "status": 3734,
      "fixed": 3735,
      "smoke": 3736,
      "mirror": 3737,
      "select": 3738,
      "sherlock": 3739,
      "praise": 3740,
      "fursuit": 3741,
      "scribe": 3742,
      "nintendo": 3743,
      "cision": 3744,
      "reporting": 3745,
      "chocolate": 3746,
      "israel": 3747,
      "ghost": 3748,
      "sudden": 3749,
      "ridiculous": 3750,
      "nwsldraft": 3751,
      "taylor": 3752,
      "49": 3753,
      "7pm": 3754,
      "bart": 3755,
      "cs": 3756,
      "equ": 3757,
      "eag": 3758,
      "espn": 3759,
      "gamer": 3760,
      "hund": 3761,
      "hub": 3762,
      "ich": 3763,
      "jar": 3764,
      "j20": 3765,
      "kent": 3766,
      "kers": 3767,
      "lg": 3768,
      "ln": 3769,
      "len": 3770,
      "nc": 3771,
      "nado": 3772,
      "oak": 3773,
      "pale": 3774,
      "psy": 3775,
      "rat": 3776,
      "rice": 3777,
      "rating": 3778,
      "sf": 3779,
      "sne": 3780,
      "swa": 3781,
      "vu": 3782,
      "wm": 3783,
      "zed": 3784,
      "resta": 3785,
      "rebel": 3786,
      "reaction": 3787,
      "usive": 3788,
      "sten": 3789,
      "atl": 3790,
      "alum": 3791,
      "lection": 3792,
      "libr": 3793,
      "meat": 3794,
      "itive": 3795,
      "union": 3796,
      "unte": 3797,
      "ict": 3798,
      "cott": 3799,
      "rome": 3800,
      "seo": 3801,
      "sessed": 3802,
      "deter": 3803,
      "decor": 3804,
      "devo": 3805,
      "defeat": 3806,
      "decision": 3807,
      "among": 3808,
      "shed": 3809,
      "shel": 3810,
      "shall": 3811,
      "ura": 3812,
      "hole": 3813,
      "sota": 3814,
      "soooo": 3815,
      "ween": 3816,
      "westand": 3817,
      "spro": 3818,
      "spark": 3819,
      "oked": 3820,
      "okla": 3821,
      "fund": 3822,
      "diffic": 3823,
      "ately": 3824,
      "anda": 3825,
      "contain": 3826,
      "vile": 3827,
      "raise": 3828,
      "peep": 3829,
      "2020": 3830,
      "pregn": 3831,
      "plor": 3832,
      "ident": 3833,
      "sare": 3834,
      "gray": 3835,
      "pical": 3836,
      "goodness": 3837,
      "2018": 3838,
      "aug": 3839,
      "greatagain": 3840,
      "bak": 3841,
      "bern": 3842,
      "doe": 3843,
      "guel": 3844,
      "leaf": 3845,
      "ften": 3846,
      "fier": 3847,
      "trait": 3848,
      "trail": 3849,
      "mylife": 3850,
      "carri": 3851,
      "chem": 3852,
      "anybody": 3853,
      "england": 3854,
      "breath": 3855,
      "shawn": 3856,
      "indivi": 3857,
      "boycott": 3858,
      "corn": 3859,
      "corner": 3860,
      "legacy": 3861,
      "syri": 3862,
      "valley": 3863,
      "disappoint": 3864,
      "meanwhile": 3865,
      "whose": 3866,
      "peter": 3867,
      "bloody": 3868,
      "mmmm": 3869,
      "netflix": 3870,
      "border": 3871,
      "caption": 3872,
      "nike": 3873,
      "grass": 3874,
      "politician": 3875,
      "contact": 3876,
      "screaming": 3877,
      "childhood": 3878,
      "picked": 3879,
      "invent": 3880,
      "basic": 3881,
      "unityday": 3882,
      "download": 3883,
      "pilot": 3884,
      "visiting": 3885,
      "rolling": 3886,
      "respond": 3887,
      "socialmedia": 3888,
      "thomas": 3889,
      "ugly": 3890,
      "legendary": 3891,
      "micro": 3892,
      "volunte": 3893,
      "refu": 3894,
      "possibly": 3895,
      "jordan": 3896,
      "royal": 3897,
      "independ": 3898,
      "listening": 3899,
      "changing": 3900,
      "surprised": 3901,
      "circle": 3902,
      "hawks": 3903,
      "similar": 3904,
      "culture": 3905,
      "data": 3906,
      "gluten": 3907,
      "annual": 3908,
      "solid": 3909,
      "quiet": 3910,
      "through": 3911,
      "violence": 3912,
      "smell": 3913,
      "investig": 3914,
      "harmonizer": 3915,
      "francis": 3916,
      "innov": 3917,
      "southern": 3918,
      "recruit": 3919,
      "brady": 3920,
      "biden": 3921,
      "performing": 3922,
      "french": 3923,
      "caffeine": 3924,
      "poetry": 3925,
      "believ": 3926,
      "hundred": 3927,
      "37": 3928,
      "38": 3929,
      "47": 3930,
      "4g": 3931,
      "66": 3932,
      "80": 3933,
      "ahead": 3934,
      "bama": 3935,
      "cb": 3936,
      "cine": 3937,
      "dor": 3938,
      "dama": 3939,
      "ez": 3940,
      "evid": 3941,
      "eclipse": 3942,
      "fell": 3943,
      "glow": 3944,
      "gather": 3945,
      "hs": 3946,
      "jus": 3947,
      "kir": 3948,
      "knight": 3949,
      "lap": 3950,
      "mall": 3951,
      "mater": 3952,
      "nur": 3953,
      "nut": 3954,
      "nbc": 3955,
      "nude": 3956,
      "oce": 3957,
      "often": 3958,
      "qt": 3959,
      "rub": 3960,
      "rated": 3961,
      "swed": 3962,
      "scared": 3963,
      "tn": 3964,
      "tgif": 3965,
      "ufc": 3966,
      "wc": 3967,
      "was": 3968,
      "yu": 3969,
      "inated": 3970,
      "regre": 3971,
      "requ": 3972,
      "recomm": 3973,
      "remain": 3974,
      "republi": 3975,
      "research": 3976,
      "usual": 3977,
      "arter": 3978,
      "ala": 3979,
      "alt": 3980,
      "aling": 3981,
      "lewis": 3982,
      "los": 3983,
      "lis": 3984,
      "chip": 3985,
      "chief": 3986,
      "unit": 3987,
      "unless": 3988,
      "romance": 3989,
      "dep": 3990,
      "amen": 3991,
      "shes": 3992,
      "tower": 3993,
      "ghan": 3994,
      "adult": 3995,
      "elli": 3996,
      "ila": 3997,
      "ently": 3998,
      "iran": 3999,
      "homa": 4000,
      "ties": 4001,
      "solo": 4002,
      "odd": 4003,
      "ceed": 4004,
      "spaper": 4005,
      "term": 4006,
      "upload": 4007,
      "funday": 4008,
      "dier": 4009,
      "diversity": 4010,
      "heavy": 4011,
      "constit": 4012,
      "visu": 4013,
      "miguel": 4014,
      "cait": 4015,
      "cture": 4016,
      "isinthe": 4017,
      "sass": 4018,
      "quarter": 4019,
      "impe": 4020,
      "nah": 4021,
      "knowledge": 4022,
      "hide": 4023,
      "guar": 4024,
      "sonic": 4025,
      "cise": 4026,
      "civil": 4027,
      "whel": 4028,
      "brace": 4029,
      "serving": 4030,
      "makeamerica": 4031,
      "leted": 4032,
      "outfit": 4033,
      "donut": 4034,
      "german": 4035,
      "germany": 4036,
      "bute": 4037,
      "freak": 4038,
      "sunny": 4039,
      "shipping": 4040,
      "teammate": 4041,
      "famous": 4042,
      "snation": 4043,
      "lightning": 4044,
      "situation": 4045,
      "cancer": 4046,
      "singh": 4047,
      "eness": 4048,
      "barry": 4049,
      "jax": 4050,
      "jeff": 4051,
      "humble": 4052,
      "meaning": 4053,
      "gency": 4054,
      "justfor": 4055,
      "whoever": 4056,
      "frank": 4057,
      "foodie": 4058,
      "bush": 4059,
      "tivity": 4060,
      "121": 4061,
      "aaa": 4062,
      "finding": 4063,
      "healthcare": 4064,
      "wishing": 4065,
      "stuck": 4066,
      "forecast": 4067,
      "ators": 4068,
      "2007": 4069,
      "2009": 4070,
      "teaching": 4071,
      "cuit": 4072,
      "italy": 4073,
      "chase": 4074,
      "btw": 4075,
      "belt": 4076,
      "potter": 4077,
      "protesting": 4078,
      "hhh": 4079,
      "flop": 4080,
      "floor": 4081,
      "silver": 4082,
      "silent": 4083,
      "vintage": 4084,
      "palm": 4085,
      "struction": 4086,
      "horse": 4087,
      "horrible": 4088,
      "richard": 4089,
      "movement": 4090,
      "glas": 4091,
      "interested": 4092,
      "sched": 4093,
      "logic": 4094,
      "spoon": 4095,
      "incredibly": 4096,
      "growth": 4097,
      "purple": 4098,
      "bottom": 4099,
      "terrorism": 4100,
      "direct": 4101,
      "direction": 4102,
      "british": 4103,
      "whether": 4104,
      "promotion": 4105,
      "panel": 4106,
      "selected": 4107,
      "confirm": 4108,
      "nhl": 4109,
      "nearly": 4110,
      "appear": 4111,
      "chinese": 4112,
      "ultimate": 4113,
      "hawk": 4114,
      "bbcqt": 4115,
      "galax": 4116,
      "feminist": 4117,
      "scotland": 4118,
      "transit": 4119,
      "discus": 4120,
      "adorable": 4121,
      "whenever": 4122,
      "wolf": 4123,
      "african": 4124,
      "allowed": 4125,
      "carolina": 4126,
      "bathroom": 4127,
      "vacation": 4128,
      "debate": 4129,
      "decide": 4130,
      "administration": 4131,
      "girlmeets": 4132,
      "knock": 4133,
      "environment": 4134,
      "insane": 4135,
      "parenting": 4136,
      "suddenly": 4137,
      "restaurant": 4138,
      "unitydays2017": 4139,
      "volunteer": 4140,
      "ocean": 4141,
      "republican": 4142,
      "34": 4143,
      "39": 4144,
      "7th": 4145,
      "85": 4146,
      "98": 4147,
      "ain": 4148,
      "ase": 4149,
      "ake": 4150,
      "bis": 4151,
      "blast": 4152,
      "dit": 4153,
      "dick": 4154,
      "effic": 4155,
      "gic": 4156,
      "gall": 4157,
      "gvs": 4158,
      "hed": 4159,
      "had": 4160,
      "hump": 4161,
      "honey": 4162,
      "ilove": 4163,
      "iliar": 4164,
      "mn": 4165,
      "mend": 4166,
      "nath": 4167,
      "ox": 4168,
      "oz": 4169,
      "ohi": 4170,
      "pod": 4171,
      "pine": 4172,
      "pha": 4173,
      "rather": 4174,
      "smi": 4175,
      "ux": 4176,
      "uble": 4177,
      "vind": 4178,
      "vance": 4179,
      "wart": 4180,
      "wig": 4181,
      "ying": 4182,
      "ined": 4183,
      "rec": 4184,
      "rect": 4185,
      "retro": 4186,
      "analy": 4187,
      "sted": 4188,
      "arke": 4189,
      "arsen": 4190,
      "ario": 4191,
      "enced": 4192,
      "alli": 4193,
      "then": 4194,
      "thel": 4195,
      "thep": 4196,
      "edit": 4197,
      "edition": 4198,
      "loud": 4199,
      "metro": 4200,
      "chen": 4201,
      "ched": 4202,
      "chair": 4203,
      "dee": 4204,
      "dece": 4205,
      "desp": 4206,
      "gown": 4207,
      "acle": 4208,
      "acti": 4209,
      "acare": 4210,
      "kevin": 4211,
      "shen": 4212,
      "shou": 4213,
      "ader": 4214,
      "admit": 4215,
      "nee": 4216,
      "urban": 4217,
      "illegal": 4218,
      "trick": 4219,
      "became": 4220,
      "hof": 4221,
      "hoping": 4222,
      "tis": 4223,
      "tide": 4224,
      "ulder": 4225,
      "sole": 4226,
      "weed": 4227,
      "wego": 4228,
      "span": 4229,
      "lage": 4230,
      "tae": 4231,
      "poff": 4232,
      "division": 4233,
      "display": 4234,
      "worried": 4235,
      "endor": 4236,
      "utch": 4237,
      "boom": 4238,
      "prof": 4239,
      "conserv": 4240,
      "nygvs": 4241,
      "comfor": 4242,
      "mist": 4243,
      "grey": 4244,
      "applic": 4245,
      "precious": 4246,
      "plz": 4247,
      "ured": 4248,
      "ider": 4249,
      "nochill": 4250,
      "lifestyle": 4251,
      "faith": 4252,
      "fog": 4253,
      "forum": 4254,
      "fortun": 4255,
      "2012": 4256,
      "impossible": 4257,
      "nailed": 4258,
      "wore": 4259,
      "woke": 4260,
      "scale": 4261,
      "hire": 4262,
      "worker": 4263,
      "evol": 4264,
      "fired": 4265,
      "gameof": 4266,
      "myshow": 4267,
      "ruth": 4268,
      "sarcast": 4269,
      "superman": 4270,
      "shaw": 4271,
      "phil": 4272,
      "clay": 4273,
      "indigen": 4274,
      "familiar": 4275,
      "intern": 4276,
      "momlife": 4277,
      "goddess": 4278,
      "bookmyshow": 4279,
      "presidenttrump": 4280,
      "lander": 4281,
      "compli": 4282,
      "smatter": 4283,
      "canad": 4284,
      "disrespect": 4285,
      "agan": 4286,
      "agent": 4287,
      "drawn": 4288,
      "lux": 4289,
      "luke": 4290,
      "freezing": 4291,
      "jail": 4292,
      "clock": 4293,
      "tremend": 4294,
      "fitting": 4295,
      "overwhel": 4296,
      "blogs": 4297,
      "century": 4298,
      "addy": 4299,
      "addition": 4300,
      "boring": 4301,
      "hypo": 4302,
      "scott": 4303,
      "hopefully": 4304,
      "electr": 4305,
      "leading": 4306,
      "soldier": 4307,
      "fighter": 4308,
      "feelingit": 4309,
      "enjoyed": 4310,
      "santa": 4311,
      "tribute": 4312,
      "recording": 4313,
      "salute": 4314,
      "zzle": 4315,
      "sayings": 4316,
      "policy": 4317,
      "based": 4318,
      "texan": 4319,
      "productive": 4320,
      "defend": 4321,
      "responsible": 4322,
      "ucky": 4323,
      "awful": 4324,
      "chilling": 4325,
      "generous": 4326,
      "sticker": 4327,
      "bottle": 4328,
      "phys": 4329,
      "legitimate": 4330,
      "delivered": 4331,
      "democrat": 4332,
      "director": 4333,
      "simply": 4334,
      "darity": 4335,
      "praisinthe": 4336,
      "exists": 4337,
      "talented": 4338,
      "bourne": 4339,
      "atheist": 4340,
      "solidarity": 4341,
      "feminism": 4342,
      "pdx": 4343,
      "srk": 4344,
      "accepted": 4345,
      "develop": 4346,
      "amount": 4347,
      "fromhome": 4348,
      "pokemongo": 4349,
      "prepared": 4350,
      "immigration": 4351,
      "flashback": 4352,
      "verbally": 4353,
      "cancelled": 4354,
      "emergency": 4355,
      "sb51": 4356,
      "romantic": 4357,
      "scription": 4358,
      "candidate": 4359,
      "virginia": 4360,
      "signing": 4361,
      "zelda": 4362,
      "mountain": 4363,
      "rodgers": 4364,
      "beliebers": 4365,
      "michelle": 4366,
      "library": 4367,
      "oklahoma": 4368,
      "makeamericagreatagain": 4369,
      "ohio": 4370,
      "smith": 4371,
      "arsenal": 4372,
      "shoutout": 4373,
      "nygvsgb": 4374,
      "indigenous": 4375,
      "tremendous": 4376,
      "praisintheasian": 4377,
      "110": 4378,
      "250": 4379,
      "21st": 4380,
      "31": 4381,
      "4like": 4382,
      "8p": 4383,
      "8th": 4384,
      "9th": 4385,
      "ager": 4386,
      "bene": 4387,
      "bunch": 4388,
      "cum": 4389,
      "cbb": 4390,
      "dq": 4391,
      "dang": 4392,
      "dated": 4393,
      "dale": 4394,
      "ego": 4395,
      "equal": 4396,
      "fred": 4397,
      "glit": 4398,
      "hd": 4399,
      "if": 4400,
      "iow": 4401,
      "jk": 4402,
      "ku": 4403,
      "koh": 4404,
      "ls": 4405,
      "mort": 4406,
      "oon": 4407,
      "ole": 4408,
      "ota": 4409,
      "pil": 4410,
      "pard": 4411,
      "rn": 4412,
      "rit": 4413,
      "rate": 4414,
      "sir": 4415,
      "sund": 4416,
      "tx": 4417,
      "tam": 4418,
      "tum": 4419,
      "tall": 4420,
      "ued": 4421,
      "uta": 4422,
      "vp": 4423,
      "vr": 4424,
      "yi": 4425,
      "yl": 4426,
      "ys": 4427,
      "zu": 4428,
      "zay": 4429,
      "zard": 4430,
      "eral": 4431,
      "inc": 4432,
      "influ": 4433,
      "information": 4434,
      "revol": 4435,
      "retire": 4436,
      "ancy": 4437,
      "anced": 4438,
      "stl": 4439,
      "sting": 4440,
      "ara": 4441,
      "enger": 4442,
      "atics": 4443,
      "lex": 4444,
      "ority": 4445,
      "thug": 4446,
      "loser": 4447,
      "mester": 4448,
      "chap": 4449,
      "itrump": 4450,
      "unes": 4451,
      "icket": 4452,
      "rot": 4453,
      "rogue": 4454,
      "section": 4455,
      "semester": 4456,
      "veget": 4457,
      "vegan": 4458,
      "desi": 4459,
      "dems": 4460,
      "delight": 4461,
      "describe": 4462,
      "acting": 4463,
      "amb": 4464,
      "risk": 4465,
      "shark": 4466,
      "tober": 4467,
      "adul": 4468,
      "adding": 4469,
      "adise": 4470,
      "elle": 4471,
      "tron": 4472,
      "iring": 4473,
      "tem": 4474,
      "hog": 4475,
      "som": 4476,
      "magn": 4477,
      "wee": 4478,
      "weak": 4479,
      "ces": 4480,
      "spice": 4481,
      "terri": 4482,
      "lau": 4483,
      "oking": 4484,
      "upset": 4485,
      "aser": 4486,
      "option": 4487,
      "boss": 4488,
      "bother": 4489,
      "heel": 4490,
      "motor": 4491,
      "artwork": 4492,
      "apped": 4493,
      "ffx": 4494,
      "2000": 4495,
      "cash": 4496,
      "pls": 4497,
      "plat": 4498,
      "ext": 4499,
      "exer": 4500,
      "express": 4501,
      "manning": 4502,
      "lookin": 4503,
      "nots": 4504,
      "notic": 4505,
      "fault": 4506,
      "jose": 4507,
      "gaga": 4508,
      "sauce": 4509,
      "fool": 4510,
      "founder": 4511,
      "2014": 4512,
      "nail": 4513,
      "perfection": 4514,
      "bass": 4515,
      "waking": 4516,
      "passion": 4517,
      "indy": 4518,
      "hired": 4519,
      "acted": 4520,
      "actress": 4521,
      "inkle": 4522,
      "dose": 4523,
      "guard": 4524,
      "workfromhome": 4525,
      "offended": 4526,
      "athlet": 4527,
      "letting": 4528,
      "blunt": 4529,
      "aka": 4530,
      "minne": 4531,
      "photoshoot": 4532,
      "girls": 4533,
      "shower": 4534,
      "cheap": 4535,
      "dah": 4536,
      "obsessed": 4537,
      "witty": 4538,
      "yogi": 4539,
      "startup": 4540,
      "medal": 4541,
      "duo": 4542,
      "bio": 4543,
      "bible": 4544,
      "angle": 4545,
      "lies": 4546,
      "paradise": 4547,
      "crap": 4548,
      "sidewalk": 4549,
      "careful": 4550,
      "correct": 4551,
      "snt": 4552,
      "helped": 4553,
      "ofthe": 4554,
      "lando": 4555,
      "ization": 4556,
      "lineup": 4557,
      "trouble": 4558,
      "queue": 4559,
      "drone": 4560,
      "drinking": 4561,
      "gratitude": 4562,
      "badge": 4563,
      "badass": 4564,
      "aged": 4565,
      "voter": 4566,
      "charlot": 4567,
      "sentence": 4568,
      "eee": 4569,
      "blogger": 4570,
      "portrait": 4571,
      "raining": 4572,
      "packing": 4573,
      "centre": 4574,
      "added": 4575,
      "capture": 4576,
      "capital": 4577,
      "filled": 4578,
      "114": 4579,
      "emma": 4580,
      "embar": 4581,
      "officer": 4582,
      "youth": 4583,
      "gross": 4584,
      "hallo": 4585,
      "coaching": 4586,
      "castle": 4587,
      "formal": 4588,
      "falling": 4589,
      "bitcoin": 4590,
      "instagood": 4591,
      "tornado": 4592,
      "butter": 4593,
      "oregon": 4594,
      "italian": 4595,
      "taxi": 4596,
      "limit": 4597,
      "pix": 4598,
      "potential": 4599,
      "johnson": 4600,
      "buying": 4601,
      "designed": 4602,
      "approach": 4603,
      "approved": 4604,
      "specialreport": 4605,
      "silence": 4606,
      "firework": 4607,
      "rocky": 4608,
      "viral": 4609,
      "stephen": 4610,
      "awww": 4611,
      "dropped": 4612,
      "fella": 4613,
      "flowers": 4614,
      "brave": 4615,
      "sports": 4616,
      "sandwich": 4617,
      "logical": 4618,
      "resisttrump": 4619,
      "resistance": 4620,
      "growing": 4621,
      "protester": 4622,
      "sexism": 4623,
      "password": 4624,
      "frozen": 4625,
      "kook": 4626,
      "budget": 4627,
      "speaks": 4628,
      "britain": 4629,
      "nomination": 4630,
      "herewego": 4631,
      "radio": 4632,
      "miller": 4633,
      "mbps": 4634,
      "spnjax": 4635,
      "elite": 4636,
      "majority": 4637,
      "journalism": 4638,
      "obamacare": 4639,
      "reporter": 4640,
      "negative": 4641,
      "shadowhunters": 4642,
      "kkkkkkkk": 4643,
      "dumb": 4644,
      "entertainment": 4645,
      "hidden": 4646,
      "standupcomedy": 4647,
      "thrones": 4648,
      "andrew": 4649,
      "kristen": 4650,
      "phew": 4651,
      "tattoo": 4652,
      "wrestling": 4653,
      "pepper": 4654,
      "placed": 4655,
      "impressive": 4656,
      "audience": 4657,
      "ferrer": 4658,
      "regional": 4659,
      "eagle": 4660,
      "kentucky": 4661,
      "oakland": 4662,
      "westandunited": 4663,
      "vilege": 4664,
      "bakch": 4665,
      "fierce": 4666,
      "cinema": 4667,
      "regret": 4668,
      "recommend": 4669,
      "constitution": 4670,
      "visual": 4671,
      "gameofthrones": 4672,
      "sarcastic": 4673,
      "canadian": 4674,
      "blogsbar": 4675,
      "3d": 4676,
      "55": 4677,
      "76": 4678,
      "9gag": 4679,
      "aun": 4680,
      "aint": 4681,
      "ability": 4682,
      "bd": 4683,
      "bf": 4684,
      "cfc": 4685,
      "cult": 4686,
      "dent": 4687,
      "daddy": 4688,
      "fence": 4689,
      "fbi": 4690,
      "gap": 4691,
      "gie": 4692,
      "ht": 4693,
      "his": 4694,
      "hud": 4695,
      "ied": 4696,
      "jet": 4697,
      "jong": 4698,
      "kum": 4699,
      "kward": 4700,
      "lind": 4701,
      "lud": 4702,
      "ns": 4703,
      "nit": 4704,
      "ov": 4705,
      "pp": 4706,
      "pug": 4707,
      "qotd": 4708,
      "sse": 4709,
      "sary": 4710,
      "tel": 4711,
      "tca": 4712,
      "twi": 4713,
      "tcot": 4714,
      "udi": 4715,
      "vit": 4716,
      "vsatl": 4717,
      "yed": 4718,
      "yuri": 4719,
      "inj": 4720,
      "inner": 4721,
      "oning": 4722,
      "onna": 4723,
      "reve": 4724,
      "relie": 4725,
      "remark": 4726,
      "relig": 4727,
      "antiv": 4728,
      "anime": 4729,
      "leon": 4730,
      "lego": 4731,
      "orry": 4732,
      "orlando": 4733,
      "thum": 4734,
      "thick": 4735,
      "edgy": 4736,
      "editing": 4737,
      "lout": 4738,
      "lio": 4739,
      "lian": 4740,
      "licity": 4741,
      "chop": 4742,
      "unite": 4743,
      "unknown": 4744,
      "unlimited": 4745,
      "unbeliev": 4746,
      "coz": 4747,
      "core": 4748,
      "cosplay": 4749,
      "coordin": 4750,
      "rout": 4751,
      "dec": 4752,
      "devil": 4753,
      "desper": 4754,
      "deplor": 4755,
      "kem": 4756,
      "ams": 4757,
      "rider": 4758,
      "sham": 4759,
      "shell": 4760,
      "bee": 4761,
      "beck": 4762,
      "beast": 4763,
      "uma": 4764,
      "irma": 4765,
      "holic": 4766,
      "tier": 4767,
      "ula": 4768,
      "soo": 4769,
      "sigh": 4770,
      "sibility": 4771,
      "spit": 4772,
      "okie": 4773,
      "tagged": 4774,
      "funnie": 4775,
      "worse": 4776,
      "oppon": 4777,
      "boi": 4778,
      "prom": 4779,
      "proper": 4780,
      "provide": 4781,
      "moved": 4782,
      "const": 4783,
      "convention": 4784,
      "raised": 4785,
      "oline": 4786,
      "anka": 4787,
      "commu": 4788,
      "miami": 4789,
      "apping": 4790,
      "apply": 4791,
      "appla": 4792,
      "marvel": 4793,
      "cade": 4794,
      "preview": 4795,
      "isation": 4796,
      "manto": 4797,
      "manchester": 4798,
      "manager": 4799,
      "timeline": 4800,
      "formed": 4801,
      "quit": 4802,
      "goodmorning": 4803,
      "impressed": 4804,
      "seek": 4805,
      "trumptrain": 4806,
      "woah": 4807,
      "wage": 4808,
      "passed": 4809,
      "indv": 4810,
      "bergen": 4811,
      "igno": 4812,
      "everytime": 4813,
      "histor": 4814,
      "moron": 4815,
      "doing": 4816,
      "dome": 4817,
      "mond": 4818,
      "guin": 4819,
      "guid": 4820,
      "backto": 4821,
      "worked": 4822,
      "typical": 4823,
      "serve": 4824,
      "served": 4825,
      "ension": 4826,
      "comeback": 4827,
      "offensive": 4828,
      "fielder": 4829,
      "rence": 4830,
      "games": 4831,
      "bling": 4832,
      "outlander": 4833,
      "istic": 4834,
      "mination": 4835,
      "lling": 4836,
      "cheek": 4837,
      "davis": 4838,
      "tweeting": 4839,
      "anywhere": 4840,
      "sarah": 4841,
      "superdraft": 4842,
      "shake": 4843,
      "sunshine": 4844,
      "watched": 4845,
      "skip": 4846,
      "stab": 4847,
      "privilege": 4848,
      "presidential": 4849,
      "excite": 4850,
      "attending": 4851,
      "attended": 4852,
      "smiling": 4853,
      "canvas": 4854,
      "aband": 4855,
      "mayor": 4856,
      "inaugurationday": 4857,
      "uniform": 4858,
      "keeplife": 4859,
      "dogsoftwitter": 4860,
      "discovered": 4861,
      "agdq": 4862,
      "luv": 4863,
      "ripped": 4864,
      "cycl": 4865,
      "dressed": 4866,
      "handsome": 4867,
      "charger": 4868,
      "closer": 4869,
      "factory": 4870,
      "justkidding": 4871,
      "catsoftwitter": 4872,
      "france": 4873,
      "harder": 4874,
      "overwatch": 4875,
      "tsburgh": 4876,
      "northern": 4877,
      "covery": 4878,
      "asso": 4879,
      "adden": 4880,
      "planning": 4881,
      "scout": 4882,
      "elected": 4883,
      "shirts": 4884,
      "kindness": 4885,
      "grab": 4886,
      "courage": 4887,
      "foreign": 4888,
      "battery": 4889,
      "hungry": 4890,
      "salt": 4891,
      "definition": 4892,
      "mighty": 4893,
      "presentation": 4894,
      "invite": 4895,
      "curi": 4896,
      "basically": 4897,
      "belong": 4898,
      "pier": 4899,
      "burger": 4900,
      "tennes": 4901,
      "victim": 4902,
      "ausopen": 4903,
      "sorrynots": 4904,
      "destiny": 4905,
      "cards": 4906,
      "townhall": 4907,
      "insult": 4908,
      "brings": 4909,
      "reported": 4910,
      "vided": 4911,
      "structure": 4912,
      "praying": 4913,
      "awkward": 4914,
      "fellow": 4915,
      "billboard": 4916,
      "threat": 4917,
      "spotted": 4918,
      "tuned": 4919,
      "trend": 4920,
      "emoji": 4921,
      "pittsburgh": 4922,
      "writers": 4923,
      "written": 4924,
      "statue": 4925,
      "smoo": 4926,
      "sheet": 4927,
      "kitty": 4928,
      "mumbai": 4929,
      "milk": 4930,
      "milan": 4931,
      "cookie": 4932,
      "becomes": 4933,
      "gbvsatl": 4934,
      "touchdown": 4935,
      "minister": 4936,
      "tiny": 4937,
      "priceless": 4938,
      "afford": 4939,
      "folloback": 4940,
      "continues": 4941,
      "apartment": 4942,
      "eliza": 4943,
      "hmmm": 4944,
      "obamas": 4945,
      "nuclear": 4946,
      "dallas": 4947,
      "epicfail": 4948,
      "gmw": 4949,
      "innocent": 4950,
      "zero": 4951,
      "survive": 4952,
      "mentalhealth": 4953,
      "emotional": 4954,
      "jungkook": 4955,
      "adopted": 4956,
      "woohoo": 4957,
      "rescue": 4958,
      "recently": 4959,
      "fifth": 4960,
      "brooklyn": 4961,
      "involved": 4962,
      "easily": 4963,
      "farewell": 4964,
      "neighborhood": 4965,
      "jacket": 4966,
      "sacri": 4967,
      "lovatics": 4968,
      "greeting": 4969,
      "whatsapp": 4970,
      "snarky": 4971,
      "economy": 4972,
      "fascist": 4973,
      "likeforlike": 4974,
      "strategy": 4975,
      "attempt": 4976,
      "melania": 4977,
      "cutiesaturday": 4978,
      "equip": 4979,
      "psycho": 4980,
      "sneak": 4981,
      "devos": 4982,
      "evidence": 4983,
      "sassy": 4984,
      "glasbergen": 4985,
      "schedule": 4986,
      "galaxy": 4987,
      "girlmeetsgoodbye": 4988,
      "conservative": 4989,
      "comfortable": 4990,
      "application": 4991,
      "evolution": 4992,
      "zayn": 4993,
      "exercise": 4994,
      "athletic": 4995,
      "minnesota": 4996,
      "religion": 4997,
      "funniest": 4998,
      "opponent": 4999
    },
    "merges": [
      "e r",
      "i n",
      "o n",
      "r e",
      "u s",
      "a n",
      "in g",
      "s t",
      "a r",
      "e n",
      "a t",
      "a l",
      "us er",
      "l e",
      "o r",
      "t h",
      "e d",
      "a y",
      "l o",
      "l i",
      "m e",
      "c h",
      "i t",
      "u n",
      "i c",
      "c o",
      "r o",
      "s e",
      "v e",
      "d e",
      "g o",
      "a c",
      "k e",
      "a m",
      "r i",
      "l y",
      "d ay",
      "s h",
      "t o",
      "g h",
      "e t",
      "i on",
      "a d",
      "s s",
      "n e",
      "e l",
      "u r",
      "i l",
      "v er",
      "t r",
      "b e",
      "en t",
      "u m",
      "i r",
      "a p",
      "t e",
      "gh t",
      "h o",
      "f e",
      "o w",
      "on e",
      "t i",
      "u l",
      "s o",
      "m a",
      "w e",
      "o d",
      "s i",
      "c e",
      "s p",
      "t er",
      "l a",
      "g e",
      "o k",
      "o m",
      "t a",
      "at ion",
      "u p",
      "f un",
      "p o",
      "d i",
      "w or",
      "en d",
      "a s",
      "at e",
      "u t",
      "an d",
      "o p",
      "b o",
      "p ro",
      "h e",
      "y e",
      "m o",
      "lo ve",
      "c on",
      "v i",
      "r a",
      "ac k",
      "o l",
      "ar t",
      "n y",
      "li ke",
      "p e",
      "an k",
      "co m",
      "m i",
      "al ly",
      "g et",
      "g re",
      "u e",
      "ap p",
      "f f",
      "b le",
      "in e",
      "2 0",
      "h a",
      "m ar",
      "c a",
      "c t",
      "th ank",
      "l d",
      "al l",
      "p re",
      "p l",
      "u re",
      "i ght",
      "ar d",
      "e ver",
      "e x",
      "p r",
      "i d",
      "i s",
      "ne w",
      "fun ny",
      "m an",
      "lo ok",
      "n o",
      "an t",
      "li fe",
      "f a",
      "j o",
      "g a",
      "n ow",
      "k ing",
      "s a",
      "il l",
      "w ay",
      "th ing",
      "f o",
      "um p",
      "it y",
      "ic e",
      "ti me",
      "to day",
      "g r",
      "c k",
      "el l",
      "f or",
      "q u",
      "f ul",
      "p ic",
      "d er",
      "th er",
      "go od",
      "20 1",
      "o u",
      "lo l",
      "f ri",
      "i m",
      "se e",
      "a u",
      "w om",
      "gre at",
      "h app",
      "n a",
      "so me",
      "p er",
      "tr ump",
      "b a",
      "t on",
      "t ing",
      "it e",
      "w o",
      "i e",
      "w a",
      "p a",
      "in d",
      "b er",
      "ac e",
      "k now",
      "i g",
      "o t",
      "be st",
      "s c",
      "u d",
      "i ve",
      "or t",
      "n um",
      "ever y",
      "e p",
      "h i",
      "ac t",
      "re d",
      "s up",
      "w i",
      "lo w",
      "r y",
      "th e",
      "m or",
      "in k",
      "d o",
      "m on",
      "g u",
      "le a",
      "b ack",
      "op le",
      "mar ch",
      "pe ople",
      "n ing",
      "ye ar",
      "thank s",
      "wor k",
      "s on",
      "go t",
      "am a",
      "un d",
      "c i",
      "e k",
      "t y",
      "w h",
      "b r",
      "s ay",
      "s er",
      "ma ke",
      "w in",
      "o us",
      "0 0",
      "en s",
      "happ y",
      "ro w",
      "f ir",
      "i p",
      "m ent",
      "e v",
      "ul d",
      "o o",
      "m u",
      "co me",
      "f in",
      "o ff",
      "201 7",
      "fri end",
      "re ad",
      "at h",
      "us e",
      "we ek",
      "ri ght",
      "f t",
      "f i",
      "re ally",
      "us t",
      "re n",
      "on g",
      "tr a",
      "we et",
      "st er",
      "o te",
      "in t",
      "pl ay",
      "ga me",
      "le t",
      "b l",
      "fir st",
      "p ho",
      "ir l",
      "m y",
      "o ut",
      "me me",
      "ar y",
      "sp e",
      "i st",
      "a k",
      "at ch",
      "li t",
      "a ch",
      "p ort",
      "w ant",
      "f an",
      "m in",
      "wor ld",
      "ic k",
      "pho to",
      "ne ed",
      "c ar",
      "l l",
      "u b",
      "g irl",
      "r t",
      "w ell",
      "en ce",
      "mu ch",
      "a ge",
      "re al",
      "sh ow",
      "c re",
      "v ing",
      "tr y",
      "d on",
      "ne ver",
      "n ight",
      "ch e",
      "d a",
      "g er",
      "f ol",
      "o h",
      "gu y",
      "wom ens",
      "g n",
      "g i",
      "ton ight",
      "am er",
      "b u",
      "th ink",
      "t weet",
      "w ard",
      "womens march",
      "an ce",
      "an y",
      "h el",
      "o b",
      "m er",
      "en g",
      "co l",
      "or y",
      "a h",
      "s day",
      "ss ed",
      "r u",
      "m s",
      "s ar",
      "fe el",
      "t le",
      "i a",
      "u te",
      "go ld",
      "th ou",
      "ha ha",
      "w it",
      "wom an",
      "f re",
      "a st",
      "v ed",
      "vi e",
      "b re",
      "y o",
      "sup er",
      "b ro",
      "b et",
      "i ly",
      "st ill",
      "le d",
      "st art",
      "s u",
      "it ed",
      "go ing",
      "sh a",
      "c as",
      "p h",
      "s un",
      "amer ic",
      "n er",
      "w r",
      "ver s",
      "ta ke",
      "x t",
      "qu ote",
      "co un",
      "c l",
      "ch o",
      "ur n",
      "st and",
      "sh ip",
      "te am",
      "way s",
      "w atch",
      "st e",
      "m ed",
      "wo uld",
      "wa it",
      "d u",
      "g ur",
      "si d",
      "in di",
      "la st",
      "b y",
      "w ar",
      "al ways",
      "si gn",
      "b all",
      "p art",
      "ev en",
      "b i",
      "f am",
      "t ure",
      "in ter",
      "bo y",
      "t al",
      "z ing",
      "s k",
      "m om",
      "st a",
      "pre sid",
      "an g",
      "st ar",
      "li e",
      "go d",
      "in au",
      "p ar",
      "b ig",
      "fol low",
      "inau gur",
      "l ad",
      "o ther",
      "sar cas",
      "c r",
      "ho me",
      "at ed",
      "si de",
      "as on",
      "ca re",
      "read y",
      "c or",
      "u gh",
      "se l",
      "fa v",
      "bo ok",
      "p ri",
      "s n",
      "hel p",
      "presid ent",
      "au ti",
      "lo be",
      "thou ght",
      "o f",
      "le g",
      "li ght",
      "am p",
      "he ad",
      "f ace",
      "b ir",
      "c le",
      "s at",
      "s ure",
      "be auti",
      "beauti ful",
      "l and",
      "at ing",
      "ma de",
      "ct ion",
      "ex c",
      "at t",
      "com p",
      "i z",
      "il d",
      "bet ter",
      "1 7",
      "at er",
      "1 9",
      "m p",
      "pic ture",
      "lol sarcas",
      "l ine",
      "t ro",
      "ke t",
      "f l",
      "a ble",
      "s m",
      "s it",
      "st ate",
      "c an",
      "st ory",
      "st r",
      "po st",
      "1 0",
      "q ue",
      "s ing",
      "tr ue",
      "mor ning",
      "i an",
      "lea se",
      "a b",
      "e s",
      "wor d",
      "some one",
      "m ay",
      "ama zing",
      "lobe s",
      "m ber",
      "c la",
      "w ow",
      "jo b",
      "eng lobes",
      "gold englobes",
      "inaugur ation",
      "st op",
      "u th",
      "fri day",
      "g ue",
      "en e",
      "al e",
      "un i",
      "ke ep",
      "d r",
      "com m",
      "gr at",
      "every one",
      "do g",
      "wit ter",
      "b ad",
      "ne xt",
      "he ar",
      "an other",
      "c al",
      "h er",
      "n ation",
      "s y",
      "mi ss",
      "v al",
      "se t",
      "a f",
      "v ice",
      "lo t",
      "di s",
      "vie w",
      "a g",
      "com ing",
      "d ra",
      "l u",
      "li ve",
      "fam ily",
      "ch an",
      "ri p",
      "g ive",
      "k id",
      "w on",
      "ve l",
      "to mor",
      "ath er",
      "c er",
      "m us",
      "con grat",
      "tomor row",
      "ren t",
      "lit tle",
      "d ing",
      "he y",
      "hi gh",
      "bl ack",
      "od y",
      "get ting",
      "week end",
      "b ow",
      "c y",
      "d re",
      "bir th",
      "s now",
      "t witter",
      "co uld",
      "fre e",
      "t ed",
      "an s",
      "i al",
      "v o",
      "wi th",
      "wh ite",
      "h and",
      "ch ar",
      "sel f",
      "b ar",
      "e ar",
      "j a",
      "j e",
      "er s",
      "sh o",
      "a re",
      "g y",
      "h um",
      "me mber",
      "ble ssed",
      "t wo",
      "c lo",
      "p lease",
      "r un",
      "t re",
      "fe ct",
      "some thing",
      "f act",
      "h ar",
      "i sh",
      "p ut",
      "t ell",
      "st o",
      "st re",
      "al d",
      "new s",
      "201 6",
      "ci al",
      "won der",
      "i ous",
      "me an",
      "ne ss",
      "pro ud",
      "jo y",
      "c all",
      "i re",
      "ed y",
      "a we",
      "g on",
      "g en",
      "n ice",
      "s en",
      "to p",
      "c ur",
      "j ust",
      "w ho",
      "c at",
      "od i",
      "vers ity",
      "s in",
      "ho use",
      "ye s",
      "se ason",
      "man y",
      "a ir",
      "c li",
      "le ss",
      "pl ace",
      "l an",
      "me et",
      "f r",
      "f it",
      "p et",
      "w al",
      "re l",
      "il li",
      "te st",
      "ho ur",
      "a way",
      "h ard",
      "s ent",
      "ro ast",
      "ye ah",
      "vi de",
      "ol d",
      "americ a",
      "awe some",
      "c us",
      "g g",
      "w ed",
      "it ing",
      "ow er",
      "op en",
      "pre t",
      "fo od",
      "mon day",
      "birth day",
      "b us",
      "o ver",
      "t s",
      "e e",
      "n or",
      "w n",
      "fin ally",
      "d one",
      "ti v",
      "sp ir",
      "com edy",
      "cho ol",
      "1 2",
      "a go",
      "b lo",
      "e st",
      "p or",
      "s chool",
      "la ugh",
      "is m",
      "ob ama",
      "b ody",
      "un der",
      "co ver",
      "be lie",
      "gr am",
      "uni versity",
      "j an",
      "m m",
      "s ur",
      "t ion",
      "re ce",
      "mi le",
      "fo und",
      "1 00",
      "f fe",
      "ie s",
      "off er",
      "fav or",
      "ar k",
      "de l",
      "ba by",
      "exc ited",
      "d ri",
      "p ower",
      "go al",
      "ra in",
      "ward s",
      "bow l",
      "a ss",
      "c ity",
      "n et",
      "p ack",
      "c ent",
      "t urn",
      "v en",
      "al th",
      "ad d",
      "r us",
      "ic al",
      "we ar",
      "a a",
      "l ong",
      "n at",
      "sa id",
      "ser vice",
      "b or",
      "c ap",
      "f il",
      "h u",
      "m at",
      "n i",
      "one y",
      "po int",
      "he art",
      "no thing",
      "per fect",
      "h y",
      "u ght",
      "vide o",
      "m en",
      "pl an",
      "look ing",
      "cla ss",
      "d ate",
      "f er",
      "m ust",
      "s co",
      "ff er",
      "f ind",
      "it ion",
      "ta in",
      "h it",
      "ho pe",
      "favor ite",
      "1 1",
      "e le",
      "v ote",
      "fo ot",
      "un g",
      "ge ther",
      "pre ss",
      "g lad",
      "sh ir",
      "as k",
      "pr life",
      "pr roast",
      "per son",
      "sup port",
      "col le",
      "bre ak",
      "f c",
      "k ind",
      "p at",
      "ur day",
      "sun day",
      "b c",
      "e m",
      "s le",
      "st ud",
      "to gether",
      "chan ge",
      "i um",
      "m ind",
      "u al",
      "ch at",
      "he alth",
      "ou gh",
      "americ an",
      "pret ty",
      "3 0",
      "5 0",
      "c ra",
      "g ra",
      "i ss",
      "an no",
      "so on",
      "si st",
      "vi a",
      "ha ir",
      "wi sh",
      "mon th",
      "off ic",
      "mus ic",
      "p m",
      "w el",
      "ch ri",
      "ma king",
      "indi a",
      "nation al",
      "p ay",
      "li st",
      "ch amp",
      "sh ot",
      "con d",
      "fa il",
      "na me",
      "don ald",
      "sat urday",
      "b ri",
      "d an",
      "p ing",
      "y ou",
      "ar o",
      "le ad",
      "tr uth",
      "so l",
      "gre e",
      "b an",
      "st u",
      "po lit",
      "pr world",
      "gr ap",
      "1 st",
      "c ute",
      "k en",
      "s or",
      "er e",
      "th ur",
      "co ur",
      "ow n",
      "con t",
      "coun try",
      "f ight",
      "h ate",
      "z y",
      "re tweet",
      "we ather",
      "ine ss",
      "fo re",
      "g ro",
      "h al",
      "re member",
      "wo od",
      "tra in",
      "any one",
      "g in",
      "i ma",
      "m oney",
      "w is",
      "y a",
      "le ft",
      "ta wards",
      "try ing",
      "1 6",
      "i de",
      "i hear",
      "co ach",
      "to t",
      "mo tiv",
      "lad y",
      "lolsarcas m",
      "ihear tawards",
      "b ly",
      "en ough",
      "ce ss",
      "ca me",
      "jo in",
      "qu al",
      "feel ing",
      "lolsarcas ms",
      "belie ve",
      "p ub",
      "li c",
      "ul t",
      "ca st",
      "funny pic",
      "sn ap",
      "illi on",
      "foot ball",
      "aro und",
      "st y",
      "st ay",
      "en joy",
      "ke y",
      "ta g",
      "ful l",
      "congrat s",
      "cus to",
      "1 3",
      "s um",
      "u ary",
      "al so",
      "un ch",
      "ic s",
      "co ffe",
      "sc re",
      "part y",
      "d am",
      "p s",
      "s ad",
      "for m",
      "happ en",
      "play er",
      "str ong",
      "shir t",
      "b at",
      "i se",
      "l er",
      "le y",
      "to ok",
      "ho t",
      "om g",
      "bl ue",
      "che ck",
      "p t",
      "s an",
      "t ri",
      "ar my",
      "at or",
      "pro ble",
      "win ter",
      "watch ing",
      "anno un",
      "tot ally",
      "r or",
      "s ed",
      "t v",
      "w ing",
      "co ol",
      "ro om",
      "20 0",
      "coffe e",
      "d y",
      "ch ild",
      "end ing",
      "pic k",
      "d en",
      "f all",
      "l ing",
      "v il",
      "y ay",
      "re cor",
      "ut ure",
      "cle ar",
      "h un",
      "s al",
      "de fin",
      "mi ght",
      "h on",
      "p en",
      "s mile",
      "in a",
      "ne sday",
      "sa ve",
      "every thing",
      "min ute",
      "hum an",
      "sin ce",
      "wed nesday",
      "sle ep",
      "1 8",
      "b it",
      "i o",
      "in sta",
      "coun t",
      "lu ck",
      "funnypic s",
      "f uture",
      "l ly",
      "n d",
      "r ing",
      "t or",
      "t ic",
      "u ally",
      "w s",
      "z z",
      "se en",
      "ne y",
      "ma il",
      "sp on",
      "di ffer",
      "pre sent",
      "thur sday",
      "a v",
      "a king",
      "d om",
      "e ye",
      "f ic",
      "h ill",
      "k ill",
      "w er",
      "in v",
      "re ci",
      "us ed",
      "st or",
      "or der",
      "te ach",
      "wor king",
      "mo vie",
      "say ing",
      "sha re",
      "motiv ation",
      "1 5",
      "b ut",
      "c ry",
      "h one",
      "k a",
      "ti ve",
      "mo st",
      "oo oo",
      "wel come",
      "chri st",
      "c ed",
      "f la",
      "me ss",
      "el se",
      "po li",
      "jo ke",
      "mom ent",
      "with out",
      "champ ion",
      "c u",
      "o re",
      "p ed",
      "it al",
      "ro ss",
      "ma ga",
      "ce le",
      "ph one",
      "med ium",
      "b al",
      "ch a",
      "ss ion",
      "we st",
      "ta x",
      "pr love",
      "jo h",
      "fin ish",
      "tal k",
      "que st",
      "b t",
      "d in",
      "d ro",
      "m ate",
      "w ater",
      "in spir",
      "ac y",
      "wait ing",
      "comm it",
      "b as",
      "g an",
      "l ar",
      "z a",
      "us h",
      "li m",
      "un ity",
      "sh ing",
      "te x",
      "spe ct",
      "b el",
      "d own",
      "p i",
      "t ue",
      "z e",
      "th ed",
      "li p",
      "se cond",
      "ge st",
      "ta king",
      "po p",
      "ut y",
      "pro du",
      "mi d",
      "ev ent",
      "gue ss",
      "rus si",
      "colle ge",
      "cele br",
      "b ur",
      "l ay",
      "t en",
      "on t",
      "re st",
      "app reci",
      "col or",
      "wr ong",
      "stud ent",
      "f ar",
      "h am",
      "s ub",
      "v ic",
      "al ready",
      "ro ad",
      "de f",
      "de ad",
      "po t",
      "see ms",
      "don t",
      "recor d",
      "joh n",
      "a us",
      "c ri",
      "d c",
      "i ence",
      "l on",
      "l ate",
      "m ing",
      "m illion",
      "al most",
      "me mor",
      "ma s",
      "pro test",
      "ite ly",
      "sor ry",
      "m r",
      "w ent",
      "de st",
      "ul ation",
      "si s",
      "di e",
      "wor th",
      "vi sit",
      "no t",
      "for get",
      "lea st",
      "bu y",
      "wr iting",
      "care er",
      "dre am",
      "defin itely",
      "a ward",
      "b s",
      "h h",
      "h an",
      "s weet",
      "w an",
      "at ive",
      "de sign",
      "be a",
      "ut ion",
      "sa w",
      "lea ve",
      "ser ious",
      "tro ll",
      "rel ation",
      "tue sday",
      "a gree",
      "i k",
      "n n",
      "o s",
      "st ic",
      "ro ll",
      "ap pro",
      "ca se",
      "spe cial",
      "rent ly",
      "jan uary",
      "ide a",
      "custo mer",
      "c am",
      "c ard",
      "d ad",
      "f lo",
      "j u",
      "m c",
      "o ur",
      "s il",
      "re spon",
      "de li",
      "to wn",
      "el d",
      "so cial",
      "bo x",
      "mar k",
      "a de",
      "s qu",
      "v in",
      "in s",
      "un ited",
      "co up",
      "br ing",
      "fi re",
      "da ily",
      "quote s",
      "par k",
      "sing le",
      "qual ity",
      "f al",
      "u ck",
      "y et",
      "re port",
      "le te",
      "ro ck",
      "up date",
      "vi d",
      "ct ed",
      "want ed",
      "photo grap",
      "announ ce",
      "relation ship",
      "b la",
      "b and",
      "d ou",
      "l ma",
      "p al",
      "p ie",
      "v ir",
      "st ep",
      "am ed",
      "to m",
      "ap er",
      "con f",
      "im port",
      "car pet",
      "sk y",
      "dam n",
      "coup le",
      "4 0",
      "c id",
      "j ack",
      "n on",
      "t rip",
      "st ru",
      "le ar",
      "th o",
      "ic o",
      "ho ld",
      "vi ous",
      "any thing",
      "self ie",
      "stre et",
      "f ine",
      "o c",
      "p y",
      "u g",
      "u de",
      "re ason",
      "us ing",
      "an a",
      "lo ved",
      "pr ay",
      "sa fe",
      "time s",
      "ther e",
      "act ually",
      "tra vel",
      "fan ta",
      "leg end",
      "h at",
      "n ie",
      "r ac",
      "in king",
      "le vel",
      "be at",
      "com ic",
      "hi story",
      "fin al",
      "under stand",
      "a w",
      "d ark",
      "e mp",
      "h or",
      "h ur",
      "m ad",
      "t t",
      "u k",
      "w ind",
      "lo ad",
      "li sh",
      "de al",
      "ss i",
      "up id",
      "bo ard",
      "gre en",
      "ff ic",
      "meme s",
      "gi ft",
      "yo ur",
      "bro ther",
      "who le",
      "rece i",
      "wear ing",
      "wis dom",
      "dro p",
      "f el",
      "k k",
      "l ater",
      "r ic",
      "le s",
      "lo u",
      "lo st",
      "se at",
      "ri ch",
      "so ft",
      "la w",
      "mo re",
      "mo ve",
      "pe ace",
      "ex per",
      "play ing",
      "bu ild",
      "yo ung",
      "thought s",
      "face book",
      "val ent",
      "congrat ulation",
      "hal f",
      "2 4",
      "c ut",
      "f low",
      "g la",
      "t f",
      "v ent",
      "in cre",
      "at s",
      "se y",
      "se ll",
      "de ser",
      "am ing",
      "sh op",
      "il ar",
      "ny c",
      "wa shing",
      "may be",
      "wal k",
      "rece ive",
      "proble m",
      "bea uty",
      "b ra",
      "m odi",
      "n ed",
      "p le",
      "s w",
      "re p",
      "re spect",
      "me x",
      "ri se",
      "sp ort",
      "sp ring",
      "as ed",
      "pro ba",
      "ye ster",
      "fa st",
      "win ner",
      "gi ving",
      "thou gh",
      "inter est",
      "quest ion",
      "washing ton",
      "yester day",
      "2 5",
      "b row",
      "g ar",
      "h ell",
      "i i",
      "l in",
      "o g",
      "s ch",
      "s and",
      "st upid",
      "lo g",
      "ap e",
      "sp o",
      "ation al",
      "out side",
      "inter net",
      "insta gram",
      "proba bly",
      "b b",
      "b ul",
      "b ill",
      "s end",
      "t ur",
      "u c",
      "ar ri",
      "ar ti",
      "li ber",
      "de mo",
      "to ur",
      "ul ar",
      "vi s",
      "app a",
      "off ice",
      "bre aking",
      "offic ial",
      "lead er",
      "cont in",
      "import ant",
      "c up",
      "l or",
      "m al",
      "m atch",
      "w x",
      "re g",
      "th re",
      "be gin",
      "so und",
      "sp ot",
      "com ment",
      "ble ss",
      "mar ri",
      "wh ere",
      "ob vious",
      "su it",
      "bus iness",
      "scre en",
      "thed ay",
      "b urn",
      "j i",
      "m ic",
      "v ol",
      "w all",
      "li ter",
      "ac ter",
      "tr al",
      "ho od",
      "la in",
      "ca use",
      "ct or",
      "some times",
      "best fan",
      "son g",
      "indi an",
      "ear ly",
      "lly wood",
      "incre di",
      "2 1",
      "j er",
      "u ch",
      "v an",
      "re sist",
      "de ar",
      "po sit",
      "mo ther",
      "love ly",
      "ex pe",
      "pr joke",
      "no te",
      "fa ke",
      "lea gue",
      "wit ch",
      "dr ink",
      "char acter",
      "fore ver",
      "e u",
      "re f",
      "at ure",
      "ch ill",
      "ve s",
      "et y",
      "po ssi",
      "fa k",
      "pa in",
      "00 0",
      "cl ub",
      "que en",
      "ene ws",
      "gen er",
      "hu ge",
      "mat ter",
      "cra zy",
      "snap chat",
      "valent ine",
      "appa rently",
      "bestfan army",
      "b en",
      "e at",
      "g un",
      "r am",
      "t ar",
      "on d",
      "li ving",
      "co ld",
      "to ld",
      "te xt",
      "sp ace",
      "gre ss",
      "ex p",
      "act ion",
      "wh y",
      "read ing",
      "spe ed",
      "su c",
      "nor th",
      "liter ally",
      "a si",
      "b ed",
      "f ly",
      "g row",
      "j or",
      "p ur",
      "us a",
      "st ra",
      "th is",
      "se cre",
      "ta il",
      "ta ble",
      "pro te",
      "ex tra",
      "ba g",
      "pa rent",
      "ig n",
      "dre ss",
      "polit ics",
      "hill ary",
      "stor m",
      "recei ved",
      "c row",
      "d ic",
      "h ind",
      "k er",
      "m ale",
      "n fl",
      "st ick",
      "li ty",
      "ro y",
      "se x",
      "tr ack",
      "ent er",
      "ma g",
      "bo t",
      "fi eld",
      "iz e",
      "wonder ful",
      "sum mer",
      "differ ent",
      "tex as",
      "lon don",
      "fal con",
      "1 4",
      "2 nd",
      "e ch",
      "x x",
      "ar ch",
      "ph y",
      "leg it",
      "sen se",
      "finish ed",
      "c king",
      "d le",
      "e se",
      "t un",
      "t ren",
      "in de",
      "an ti",
      "th row",
      "ch ick",
      "te mp",
      "ma in",
      "as y",
      "fa ir",
      "ba se",
      "pa st",
      "pa ss",
      "do or",
      "che er",
      "clo se",
      "fil m",
      "vil le",
      "deli ver",
      "lou is",
      "fak enews",
      "c tive",
      "f ro",
      "j p",
      "k o",
      "u be",
      "en a",
      "lo ving",
      "be y",
      "po or",
      "fo ur",
      "wa re",
      "sup por",
      "comp et",
      "je ct",
      "meet ing",
      "dri ve",
      "ele ction",
      "health y",
      "stu ff",
      "sty le",
      "dou ble",
      "lma o",
      "demo cr",
      "e mail",
      "h ilar",
      "i v",
      "l am",
      "z i",
      "en se",
      "th inking",
      "ch ance",
      "ac ce",
      "tr ans",
      "te ch",
      "od ia",
      "si ve",
      "ter ror",
      "end er",
      "mo od",
      "app le",
      "sa v",
      "for mer",
      "haha ha",
      "start ing",
      "tal king",
      "att ack",
      "ab sol",
      "sto re",
      "cli ent",
      "list en",
      "gro up",
      "tic ket",
      "serious ly",
      "secre t",
      "absol ute",
      "b ud",
      "c ru",
      "d ge",
      "e f",
      "e mo",
      "e asy",
      "k y",
      "m it",
      "m ur",
      "p it",
      "w ild",
      "w tf",
      "in st",
      "in cl",
      "st on",
      "or ge",
      "lo ck",
      "li g",
      "ch ang",
      "ac count",
      "ri l",
      "ti e",
      "si der",
      "mo on",
      "gr and",
      "num ber",
      "wr it",
      "cle an",
      "cour se",
      "pie ce",
      "c el",
      "k s",
      "r an",
      "t it",
      "y y",
      "an im",
      "li l",
      "me s",
      "ch ic",
      "se c",
      "qu ick",
      "pa ge",
      "spe ak",
      "gold en",
      "comp lete",
      "her o",
      "dra wing",
      "fr ont",
      "fer ence",
      "pat ri",
      "happen ed",
      "champion ship",
      "arti st",
      "b um",
      "i so",
      "i ally",
      "m art",
      "p un",
      "p aper",
      "r d",
      "s am",
      "v a",
      "w w",
      "y out",
      "in ste",
      "re s",
      "sh ort",
      "be hind",
      "ir d",
      "ge e",
      "di re",
      "end ed",
      "man ce",
      "br it",
      "of theday",
      "ans wer",
      "ear th",
      "sho ck",
      "run ning",
      "cent er",
      "fil ter",
      "pub li",
      "hon or",
      "teach er",
      "poli ce",
      "rep ly",
      "rise up",
      "hilar ious",
      "4 th",
      "u u",
      "w he",
      "in al",
      "st at",
      "ri ble",
      "si mp",
      "pro mo",
      "con sider",
      "act or",
      "wi fe",
      "fi x",
      "ster n",
      "hel lo",
      "du de",
      "sat ire",
      "sm all",
      "sur pri",
      "gra de",
      "ima g",
      "obvious ly",
      "incredi ble",
      "suc cess",
      "2 3",
      "b in",
      "k ed",
      "k ick",
      "m ine",
      "n ba",
      "p up",
      "p ink",
      "s mo",
      "re turn",
      "st age",
      "sh e",
      "sh ar",
      "sh ion",
      "ti red",
      "ok ay",
      "mo del",
      "ex act",
      "fa shion",
      "ga in",
      "wa ke",
      "wh at",
      "ser ies",
      "sist ance",
      "ima ge",
      "commit ted",
      "fanta stic",
      "liber al",
      "prjoke s",
      "b ye",
      "d ed",
      "d ol",
      "i red",
      "k it",
      "m um",
      "m ir",
      "p an",
      "v s",
      "se le",
      "go v",
      "ac ross",
      "sh er",
      "to o",
      "ad a",
      "one s",
      "so uth",
      "con fir",
      "for ce",
      "ry an",
      "int el",
      "spe ech",
      "even ing",
      "bi lity",
      "comm unity",
      "cal led",
      "iss ue",
      "pub lic",
      "produ ct",
      "russi a",
      "gla ss",
      "brow n",
      "thre e",
      "c ir",
      "c ant",
      "d ar",
      "f b",
      "f y",
      "f light",
      "g one",
      "m il",
      "n h",
      "n om",
      "p ra",
      "s ale",
      "t w",
      "on a",
      "re min",
      "re present",
      "en cy",
      "al ter",
      "or ig",
      "ed uc",
      "ch el",
      "un t",
      "ic le",
      "co ok",
      "de m",
      "go og",
      "ke ting",
      "ne ar",
      "ur al",
      "be ar",
      "be come",
      "ap o",
      "ho li",
      "fe st",
      "so f",
      "ex ist",
      "ful ly",
      "pa id",
      "ber t",
      "sc ar",
      "win ning",
      "fi ed",
      "show ing",
      "fol k",
      "bu ck",
      "cl in",
      "stand ing",
      "sta ff",
      "par king",
      "sm art",
      "her e",
      "miss ion",
      "spir it",
      "blo ck",
      "offic ially",
      "mess age",
      "there sistance",
      "jer sey",
      "sav age",
      "d m",
      "g b",
      "g lo",
      "h all",
      "k i",
      "l at",
      "p pl",
      "y r",
      "in side",
      "ar m",
      "al bum",
      "de ath",
      "de tail",
      "si ster",
      "ation s",
      "ate st",
      "mi ssed",
      "mi cha",
      "gre atest",
      "mar keting",
      "see ing",
      "au ght",
      "wom en",
      "sc ene",
      "real ity",
      "just ice",
      "odi sha",
      "air port",
      "bat tle",
      "christ mas",
      "possi ble",
      "stra ight",
      "chick en",
      "patri ot",
      "inste ad",
      "imag ine",
      "remin der",
      "b ing",
      "b om",
      "f ur",
      "r ay",
      "r ad",
      "r up",
      "t d",
      "an e",
      "to uch",
      "te e",
      "so ul",
      "and om",
      "bo und",
      "pro gram",
      "ca ke",
      "ip hone",
      "min i",
      "fl or",
      "dr am",
      "cal i",
      "polit ical",
      "hun ter",
      "wednesday wisdom",
      "memor y",
      "crow d",
      "chic ago",
      "2 2",
      "a i",
      "a sh",
      "b right",
      "b jp",
      "c amp",
      "f ig",
      "g s",
      "h ack",
      "i ent",
      "p ul",
      "p iz",
      "r on",
      "s ick",
      "t in",
      "w ine",
      "on line",
      "st ri",
      "at lan",
      "al i",
      "al one",
      "th i",
      "ad vice",
      "ne l",
      "be ach",
      "ent ion",
      "ap pe",
      "ti ger",
      "ta ken",
      "po se",
      "he ard",
      "pr ice",
      "pr act",
      "no body",
      "fo x",
      "na ren",
      "sc ience",
      "int end",
      "cho ice",
      "tal ent",
      "donald trump",
      "clear ly",
      "hone st",
      "mid dle",
      "mex ico",
      "bey ond",
      "exact ly",
      "holi day",
      "micha el",
      "atlan ta",
      "9 0",
      "a ver",
      "a ff",
      "b li",
      "b ank",
      "b ell",
      "b rain",
      "d ue",
      "i or",
      "i di",
      "i led",
      "l m",
      "l unch",
      "n am",
      "er t",
      "in o",
      "ar ian",
      "or k",
      "ch oo",
      "it ude",
      "un k",
      "ic ally",
      "ro und",
      "de ep",
      "go p",
      "be er",
      "ma ss",
      "po sed",
      "bo b",
      "bo ur",
      "con vers",
      "con cer",
      "ha sh",
      "mar ket",
      "pre mi",
      "ex tre",
      "pr in",
      "id a",
      "for d",
      "sc ri",
      "ep iso",
      "oo o",
      "friend ship",
      "tra ffic",
      "real ize",
      "fol lo",
      "start ed",
      "war m",
      "cr ush",
      "fav our",
      "af ter",
      "mus lim",
      "nat ure",
      "luck y",
      "differ ence",
      "appreci ate",
      "contin ue",
      "yout ube",
      "fig ure",
      "episo de",
      "a il",
      "c atch",
      "c ross",
      "d n",
      "e ating",
      "h ang",
      "m od",
      "n intend",
      "u ri",
      "er a",
      "re ach",
      "lo gy",
      "ch ine",
      "ch all",
      "ic on",
      "ve st",
      "tr u",
      "ul ti",
      "di g",
      "di o",
      "con tro",
      "con ference",
      "ha w",
      "is on",
      "jo e",
      "ba e",
      "pa k",
      "che ese",
      "fre sh",
      "ste m",
      "inter view",
      "big gest",
      "iz ed",
      "vo ice",
      "monday motivation",
      "dri ver",
      "nat ive",
      "stud y",
      "ps 4",
      "din ner",
      "inspir ation",
      "photograp hy",
      "stru gg",
      "orig inal",
      "piz za",
      "pract ice",
      "favour ite",
      "7 0",
      "c is",
      "d ating",
      "e ff",
      "m ill",
      "r ally",
      "s l",
      "s ite",
      "w hi",
      "in sp",
      "an ge",
      "lo us",
      "co w",
      "to on",
      "tr ust",
      "ap art",
      "ho us",
      "fe male",
      "bo o",
      "pro mi",
      "pro ject",
      "ye p",
      "for got",
      "happ ens",
      "happ iness",
      "fi le",
      "play ed",
      "da vid",
      "sun set",
      "inaugur al",
      "pri v",
      "19 6",
      "laugh ing",
      "goal s",
      "pack er",
      "hur t",
      "wind ow",
      "fel t",
      "build ing",
      "flow er",
      "goog le",
      "aught er",
      "convers ation",
      "3 rd",
      "4 5",
      "c c",
      "c ing",
      "c red",
      "d aughter",
      "g ent",
      "h r",
      "j es",
      "k ar",
      "m b",
      "m l",
      "p se",
      "y ork",
      "re le",
      "re lease",
      "st un",
      "th at",
      "me t",
      "it s",
      "de cid",
      "ri de",
      "sh i",
      "sh ine",
      "ad o",
      "ho llywood",
      "ti p",
      "we ight",
      "si m",
      "sp n",
      "ta ge",
      "po l",
      "ate s",
      "bo s",
      "for ward",
      "per for",
      "trump inauguration",
      "need ed",
      "cre w",
      "haha haha",
      "wr ite",
      "sk ill",
      "other s",
      "dra w",
      "lan gu",
      "dri ving",
      "appro pri",
      "exper ience",
      "expe ct",
      "eu ro",
      "absolute ly",
      "incl ud",
      "anim al",
      "extre me",
      "2 6",
      "2 8",
      "b ang",
      "b bc",
      "c ro",
      "c ul",
      "d at",
      "e li",
      "g l",
      "g al",
      "i me",
      "i gh",
      "j am",
      "l li",
      "t bt",
      "u ce",
      "us tr",
      "an n",
      "st one",
      "at he",
      "al ive",
      "ic a",
      "co p",
      "co de",
      "se cur",
      "se arch",
      "be ing",
      "so li",
      "po ke",
      "pro fe",
      "ex am",
      "funny memes",
      "gr ad",
      "qu i",
      "br and",
      "ist an",
      "car toon",
      "super bowl",
      "follow er",
      "miss ing",
      "dra ft",
      "sho ot",
      "hum or",
      "tre at",
      "sto ck",
      "stre am",
      "open ing",
      "ee ee",
      "del ay",
      "kind a",
      "13 th",
      "bas ket",
      "aus tral",
      "cam pa",
      "lear n",
      "pray er",
      "marri age",
      "tren ding",
      "clin ton",
      "idi ot",
      "hous ton",
      "3 5",
      "b on",
      "d ir",
      "d ance",
      "e a",
      "e i",
      "e ast",
      "f ra",
      "f ive",
      "i fic",
      "r um",
      "r ick",
      "s we",
      "t ory",
      "v ot",
      "th ro",
      "ac ade",
      "sh ad",
      "il ing",
      "te s",
      "fe ed",
      "fe min",
      "ma jor",
      "pro of",
      "ye e",
      "mo uth",
      "vi ol",
      "ra id",
      "look ed",
      "jo urn",
      "for t",
      "im pro",
      "ig an",
      "do ctor",
      "wh ate",
      "eng lish",
      "ru le",
      "bro ken",
      "self ies",
      "just in",
      "fit ness",
      "sco t",
      "stu dio",
      "proble ms",
      "russi an",
      "vis ion",
      "lor d",
      "chang ed",
      "alter native",
      "educ ation",
      "dram odi",
      "naren dramodi",
      "tru ly",
      "decid ed",
      "langu age",
      "journ al",
      "5 00",
      "6 0",
      "b ay",
      "c nn",
      "f u",
      "f li",
      "f ather",
      "g and",
      "g ger",
      "h us",
      "h en",
      "h mm",
      "j ap",
      "k in",
      "k new",
      "k ore",
      "p u",
      "p in",
      "r andom",
      "ing er",
      "en er",
      "en ge",
      "al y",
      "it or",
      "ic ation",
      "ve lo",
      "sh ut",
      "sh oo",
      "tr an",
      "fe ar",
      "we stern",
      "si ble",
      "sp ic",
      "sp lay",
      "wor st",
      "and er",
      "op e",
      "mi ke",
      "thank ful",
      "all star",
      "is ed",
      "ga ve",
      "gr y",
      "do od",
      "ama z",
      "gi ant",
      "ob am",
      "fre ed",
      "med ia",
      "ang el",
      "bir d",
      "sy stem",
      "dis ney",
      "ja mes",
      "gy m",
      "bus y",
      "bor n",
      "fight ing",
      "thursday thoughts",
      "celebr ate",
      "arri ved",
      "intel lig",
      "cali for",
      "perfor mance",
      "secur ity",
      "jap an",
      "a vo",
      "b ts",
      "f ill",
      "g as",
      "g ate",
      "g aming",
      "i th",
      "n u",
      "n an",
      "n amed",
      "p d",
      "p ure",
      "s r",
      "s me",
      "s mar",
      "w il",
      "y el",
      "er n",
      "in ation",
      "in vest",
      "re por",
      "al ex",
      "ch i",
      "ch er",
      "ch ina",
      "co lo",
      "go ver",
      "ac cur",
      "ri d",
      "ur y",
      "fe at",
      "ti fic",
      "so c",
      "sp end",
      "ter rible",
      "di sc",
      "wor ry",
      "mi gr",
      "mi lit",
      "ther n",
      "per i",
      "pa int",
      "every day",
      "wi se",
      "ty pe",
      "make up",
      "tra sh",
      "play off",
      "gi ven",
      "bro ught",
      "ste al",
      "ste el",
      "inter national",
      "sk in",
      "help ing",
      "exc iting",
      "19 9",
      "fl u",
      "comm un",
      "are a",
      "fact s",
      "har ry",
      "sen ior",
      "cur rent",
      "turn ed",
      "plan e",
      "class ic",
      "bri dge",
      "christ ian",
      "inspir ing",
      "vic tory",
      "respon se",
      "pain ting",
      "exp lain",
      "mag ic",
      "acce p",
      "shock ed",
      "glo bal",
      "choo se",
      "hash tag",
      "chall enge",
      "eff ort",
      "stun ning",
      "basket ball",
      "c it",
      "d al",
      "e pic",
      "g ed",
      "l ations",
      "n t",
      "s 2017",
      "t ill",
      "t shirt",
      "in ion",
      "in the",
      "re t",
      "st an",
      "al ert",
      "or gan",
      "th ous",
      "lo c",
      "lo ver",
      "li on",
      "ch and",
      "co t",
      "de velo",
      "am o",
      "ly ing",
      "ad or",
      "ne g",
      "il er",
      "ho o",
      "fe ature",
      "ce pt",
      "sp er",
      "la ke",
      "la ught",
      "ate ful",
      "and y",
      "bo ston",
      "ra re",
      "mar y",
      "gr ateful",
      "know n",
      "let ter",
      "cre lations",
      "eng ine",
      "bro ke",
      "amp le",
      "exc ell",
      "17 0",
      "give away",
      "clo ud",
      "tre e",
      "har mon",
      "cli mate",
      "less on",
      "fr an",
      "wal king",
      "nat ural",
      "sco re",
      "ask ed",
      "cond ition",
      "gro und",
      "squ ad",
      "jack son",
      "emp lo",
      "deser ve",
      "begin ning",
      "tar get",
      "publi crelations",
      "lm fa",
      "priv ate",
      "cred it",
      "jes us",
      "appropri ate",
      "campa ign",
      "shad ow",
      "freed om",
      "soc cer",
      "2 7",
      "5 th",
      "b low",
      "c en",
      "g m",
      "n ar",
      "n ia",
      "p on",
      "p unch",
      "r ace",
      "y ard",
      "in no",
      "on to",
      "re view",
      "an ger",
      "st ation",
      "al ong",
      "lo go",
      "lo ss",
      "me l",
      "co in",
      "ro le",
      "se a",
      "se ssion",
      "de s",
      "de gree",
      "am i",
      "am ent",
      "sh out",
      "ad am",
      "um ent",
      "so u",
      "ma ster",
      "we bs",
      "la b",
      "op inion",
      "pro gress",
      "mo ving",
      "ha ik",
      "na zi",
      "sc or",
      "every body",
      "wh en",
      "rt s",
      "ru g",
      "yo ga",
      "sha me",
      "part ner",
      "star war",
      "help ful",
      "leg al",
      "comp any",
      "ene my",
      "lan e",
      "over all",
      "nor mal",
      "cover ed",
      "del hi",
      "power ful",
      "add ic",
      "rus h",
      "break fast",
      "grap h",
      "train ing",
      "tri ed",
      "av ail",
      "aus pol",
      "bla me",
      "conf id",
      "cid ent",
      "kk kk",
      "posit ive",
      "fro m",
      "flor ida",
      "thi sis",
      "concer t",
      "contro l",
      "poke mon",
      "vot ed",
      "whate ver",
      "milit ary",
      "peri od",
      "laught er",
      "haik u",
      "a x",
      "a ust",
      "d d",
      "g lobe",
      "i am",
      "i ri",
      "j un",
      "m ath",
      "o red",
      "r ap",
      "s ket",
      "s ending",
      "s witch",
      "w we",
      "w ol",
      "in fo",
      "re la",
      "st it",
      "ar s",
      "le e",
      "th ats",
      "ac on",
      "ne igh",
      "ver se",
      "ent ire",
      "we ird",
      "si ze",
      "sp ent",
      "ge ar",
      "bo ut",
      "bo ught",
      "pro file",
      "vi be",
      "no on",
      "gr ace",
      "im p",
      "ite m",
      "best cover",
      "wi de",
      "lea ving",
      "int ro",
      "spe ci",
      "ach ie",
      "ger s",
      "cr ack",
      "head ed",
      "att ention",
      "post ed",
      "friday feeling",
      "af c",
      "ag ing",
      "chan nel",
      "kid ding",
      "char ge",
      "100 0",
      "pack age",
      "hu g",
      "press ion",
      "colle ction",
      "cour t",
      "happen ing",
      "fla g",
      "def ense",
      "pot us",
      "rac ist",
      "democr acy",
      "writ er",
      "pak istan",
      "strugg le",
      "insp ired",
      "promi se",
      "acade mic",
      "dood le",
      "chand ler",
      "webs ite",
      "e sc",
      "g ay",
      "g ard",
      "j on",
      "j ay",
      "j im",
      "k at",
      "n fc",
      "p ath",
      "t u",
      "v y",
      "w illi",
      "x it",
      "y up",
      "z er",
      "re mind",
      "re cru",
      "at o",
      "at ic",
      "le man",
      "or din",
      "lo se",
      "ke s",
      "ho c",
      "ow ner",
      "ma x",
      "we are",
      "si x",
      "sp a",
      "sp read",
      "ge orge",
      "po ster",
      "bo llywood",
      "pre pa",
      "jo ur",
      "good bye",
      "march ing",
      "work out",
      "br ad",
      "br ut",
      "ser v",
      "col n",
      "bro ad",
      "part ic",
      "pri de",
      "fl at",
      "sm h",
      "can ada",
      "af ric",
      "put ting",
      "ald ub",
      "sur vi",
      "zz ard",
      "memor ial",
      "tuesday thoughts",
      "bring ing",
      "sell ing",
      "shop ping",
      "lin coln",
      "sch ol",
      "why i",
      "prote ct",
      "suppor ting",
      "mur der",
      "extreme ly",
      "profe ssion",
      "califor nia",
      "smar ta",
      "excell ent",
      "emplo yee",
      "starwar s",
      "willi am",
      "a ven",
      "b id",
      "c amer",
      "d s",
      "d um",
      "d ry",
      "e quality",
      "f lip",
      "g st",
      "g ri",
      "g orge",
      "i si",
      "j ones",
      "k h",
      "k iss",
      "l ink",
      "m ac",
      "m att",
      "n one",
      "o se",
      "r r",
      "s li",
      "t win",
      "u h",
      "u ing",
      "u ation",
      "w y",
      "w ill",
      "re li",
      "st al",
      "st ad",
      "al low",
      "le ct",
      "or d",
      "li er",
      "ch ur",
      "ic y",
      "ic an",
      "co st",
      "co ast",
      "ve y",
      "go l",
      "ac cor",
      "to ugh",
      "et te",
      "ver y",
      "be ard",
      "fe br",
      "so ld",
      "ta co",
      "di ed",
      "ra h",
      "art icle",
      "pre ssed",
      "pr int",
      "sa int",
      "sa ving",
      "im ate",
      "im migr",
      "au to",
      "na sh",
      "per form",
      "pa ul",
      "ud ge",
      "ci ous",
      "ment al",
      "use ful",
      "ren g",
      "car ol",
      "cre am",
      "da re",
      "bre xit",
      "quote oftheday",
      "cho col",
      "war ri",
      "boy friend",
      "star ter",
      "par ade",
      "follow ing",
      "sarcas m",
      "head ing",
      "att itude",
      "19 7",
      "state ment",
      "word s",
      "keep ing",
      "set ting",
      "tell ing",
      "call ing",
      "gg ing",
      "ass ist",
      "retweet s",
      "sleep ing",
      "fla sh",
      "dest roy",
      "sil ly",
      "photograp her",
      "fanta sy",
      "soft witter",
      "vent ure",
      "marri ed",
      "expe cted",
      "enter tain",
      "tun e",
      "deliver y",
      "terror ist",
      "secret ary",
      "emo tion",
      "res ult",
      "nba vote",
      "pup py",
      "premi er",
      "includ ing",
      "gover n",
      "gorge ous",
      "febr uary",
      "2 9",
      "3 3",
      "a vi",
      "b ath",
      "f ren",
      "f inger",
      "g ing",
      "h id",
      "i us",
      "i el",
      "j r",
      "j en",
      "j ump",
      "j ung",
      "k im",
      "m t",
      "m ap",
      "p hi",
      "s ma",
      "s wi",
      "s low",
      "u ber",
      "v ac",
      "z en",
      "in ing",
      "an ni",
      "th or",
      "lo sing",
      "li z",
      "it o",
      "de b",
      "de mon",
      "ac cident",
      "am writing",
      "ri s",
      "ri ver",
      "ly n",
      "to ut",
      "to tal",
      "ad op",
      "ne s",
      "ver b",
      "te ar",
      "te en",
      "ho w",
      "ho st",
      "ti re",
      "so ci",
      "si a",
      "sp r",
      "om y",
      "he at",
      "mo bi",
      "con sin",
      "com pa",
      "com mon",
      "pl us",
      "is ra",
      "is lam",
      "funny quotes",
      "sa f",
      "sa ved",
      "ill ustr",
      "qu ite",
      "wo o",
      "ind us",
      "ber nie",
      "sup re",
      "ci a",
      "br on",
      "irl ine",
      "girl friend",
      "show ed",
      "cre ate",
      "coun ter",
      "stand up",
      "du ck",
      "war ning",
      "war ming",
      "sign ed",
      "bi ke",
      "att end",
      "19 8",
      "can cel",
      "val ue",
      "with in",
      "aa aa",
      "dan ger",
      "cont ent",
      "wis consin",
      "enjoy ing",
      "bat man",
      "hon ored",
      "pop ular",
      "appreci ation",
      "appreci ated",
      "cri me",
      "flo od",
      "hold ing",
      "interest ing",
      "asi an",
      "inde ed",
      "throw back",
      "compet ition",
      "simp le",
      "gov t",
      "stri ke",
      "bli zzard",
      "after noon",
      "rele ased",
      "austral ia",
      "ei ther",
      "gand hi",
      "ener gy",
      "shoo ting",
      "yel low",
      "accur ate",
      "tific ation",
      "cen tral",
      "avail able",
      "aust in",
      "sket ch",
      "hoc key",
      "jour ney",
      "brut al",
      "schol ar",
      "whyi march",
      "accor ding",
      "1 50",
      "a z",
      "a ire",
      "a gain",
      "b day",
      "b by",
      "b illion",
      "c in",
      "c il",
      "c ell",
      "d h",
      "d un",
      "e mer",
      "e gg",
      "f le",
      "g ender",
      "i er",
      "j ok",
      "k il",
      "k han",
      "n as",
      "n ick",
      "p g",
      "p ac",
      "p end",
      "p ant",
      "s b",
      "y er",
      "re sc",
      "re place",
      "re cent",
      "st reng",
      "en sive",
      "al o",
      "al ab",
      "th r",
      "ed ge",
      "lo cal",
      "li ar",
      "li ked",
      "me tal",
      "co ll",
      "ro se",
      "ro man",
      "se an",
      "de ci",
      "et ic",
      "ad ine",
      "il ly",
      "tr uck",
      "ent ial",
      "ap ril",
      "te a",
      "te sy",
      "ho ly",
      "fe ction",
      "ti m",
      "so ur",
      "sp am",
      "la s",
      "la sh",
      "ta ste",
      "di et",
      "op er",
      "bo l",
      "con cept",
      "ra w",
      "ra ft",
      "mi s",
      "mi ch",
      "ca ffe",
      "thank you",
      "pre s",
      "ex pen",
      "gr an",
      "good night",
      "201 5",
      "ie f",
      "pa ir",
      "know ing",
      "sc rip",
      "the s",
      "do c",
      "mu g",
      "friend s",
      "friend ly",
      "fi f",
      "tra de",
      "let s",
      "bro ok",
      "vers ary",
      "urn ament",
      "big ger",
      "can di",
      "true story",
      "cla im",
      "hear ing",
      "cer tain",
      "sen ator",
      "wed ding",
      "blo od",
      "cap tain",
      "bri lli",
      "cour tesy",
      "custo m",
      "announ ced",
      "kill ing",
      "inv ol",
      "lim ited",
      "worth y",
      "not ice",
      "squ are",
      "vir gin",
      "seat tle",
      "deser ves",
      "base ball",
      "arian a",
      "mass ive",
      "mod ern",
      "dig ital",
      "kore a",
      "intellig ence",
      "thous and",
      "lmfa o",
      "rela x",
      "chur ch",
      "warri or",
      "govern ment",
      "mobi le",
      "indus try",
      "streng th",
      "9 9",
      "a ar",
      "b h",
      "c tr",
      "d j",
      "e asi",
      "f ac",
      "g or",
      "g il",
      "g ta",
      "j in",
      "k an",
      "m d",
      "n ap",
      "n ope",
      "o li",
      "p as",
      "r ank",
      "r ump",
      "t l",
      "u can",
      "z ine",
      "er y",
      "er ror",
      "in ch",
      "in appropriate",
      "on washington",
      "us ion",
      "at tr",
      "at ter",
      "lo y",
      "me al",
      "ch art",
      "ac tive",
      "sh ah",
      "to f",
      "to be",
      "to ol",
      "gh o",
      "ad ver",
      "ad min",
      "ad venture",
      "ur ing",
      "ap point",
      "ma chine",
      "we b",
      "si e",
      "si g",
      "si ri",
      "si ght",
      "sp ending",
      "sp ital",
      "la zy",
      "po et",
      "po ol",
      "di st",
      "di sa",
      "and re",
      "op s",
      "bo red",
      "mo de",
      "ha ve",
      "ha il",
      "ca ught",
      "ld raft",
      "ex ample",
      "is land",
      "fa re",
      "ga g",
      "ba i",
      "wa ve",
      "best music",
      "every where",
      "fi sh",
      "spe aking",
      "cre ated",
      "che ster",
      "oh s",
      "womensmarch onwashington",
      "any more",
      "sha de",
      "stand ard",
      "ste ve",
      "sta ke",
      "follow ed",
      "pri son",
      "vo ting",
      "ear lier",
      "sho e",
      "clo thes",
      "cli pse",
      "cra ft",
      "sol ution",
      "join ed",
      "form ation",
      "hot el",
      "lar ge",
      "cri sis",
      "ational s",
      "posit ion",
      "acce pt",
      "ril led",
      "tit le",
      "surpri se",
      "dol lar",
      "confir med",
      "dem and",
      "buck s",
      "honest ly",
      "whi le",
      "cow boy",
      "gent leman",
      "dir ty",
      "impro ve",
      "fli x",
      "spic er",
      "amaz on",
      "engine er",
      "neigh bor",
      "gard en",
      "profession al",
      "anni versary",
      "saf ety",
      "brilli ant",
      "bestmusic video",
      "3 00",
      "4 6",
      "5 1",
      "a ware",
      "a irline",
      "b acon",
      "d rug",
      "f at",
      "f ed",
      "g f",
      "g us",
      "g amed",
      "i val",
      "i fied",
      "j ac",
      "k ri",
      "m ulti",
      "o il",
      "o scar",
      "p ush",
      "r ation",
      "s us",
      "s ac",
      "s as",
      "s ud",
      "s wear",
      "t ap",
      "u lous",
      "v or",
      "w ro",
      "w et",
      "z el",
      "z one",
      "in y",
      "st rip",
      "at able",
      "th y",
      "th ird",
      "th rilled",
      "lo v",
      "li a",
      "co gn",
      "co py",
      "ro bert",
      "se m",
      "de v",
      "go at",
      "ke e",
      "am y",
      "to urnament",
      "tr ad",
      "be an",
      "ap on",
      "ho spital",
      "fe b",
      "we apon",
      "ter y",
      "po ll",
      "as king",
      "op port",
      "bo ot",
      "mo un",
      "com mission",
      "mi x",
      "gre et",
      "ca ble",
      "pl ant",
      "ex sand",
      "fa ve",
      "jo sh",
      "thing s",
      "see m",
      "ber ry",
      "sup posed",
      "ci st",
      "wh ats",
      "girl meet",
      "tweet ed",
      "led ge",
      "su ffer",
      "su gar",
      "vers ion",
      "cr it",
      "sn ark",
      "comp lain",
      "iz er",
      "iz en",
      "19 5",
      "tro phy",
      "sit ting",
      "post ing",
      "dr ama",
      "af raid",
      "je an",
      "gen ius",
      "cur rently",
      "rel ate",
      "rel atable",
      "gg ed",
      "long er",
      "hu h",
      "person al",
      "iss a",
      "chri s",
      "pay ing",
      "strong er",
      "dy ing",
      "oooo oooo",
      "maga zine",
      "inspir ational",
      "lip stick",
      "celebr ation",
      "os witch",
      "ju ly",
      "conf used",
      "lear ning",
      "memes daily",
      "peace ful",
      "exper t",
      "sw im",
      "reg ular",
      "screen shot",
      "valentine sday",
      "sex ual",
      "suppor ter",
      "ef fect",
      "complete ly",
      "tw ice",
      "fest ival",
      "aver age",
      "hang ing",
      "nintend oswitch",
      "ps4 share",
      "euro pe",
      "hus band",
      "avo id",
      "loc ation",
      "speci ally",
      "stad ium",
      "soci ety",
      "alab ama",
      "expen sive",
      "aar on",
      "wro te",
      "exsand ohs",
      "4 4",
      "7 5",
      "a me",
      "a ve",
      "b un",
      "b one",
      "b ie",
      "c m",
      "c ket",
      "d ump",
      "e h",
      "e th",
      "e ve",
      "e con",
      "e specially",
      "f as",
      "f ry",
      "g ig",
      "g gest",
      "h int",
      "h ater",
      "k no",
      "k ik",
      "p c",
      "p he",
      "p ump",
      "s d",
      "s ens",
      "t at",
      "u le",
      "v ar",
      "w rest",
      "x d",
      "y an",
      "er ed",
      "on ed",
      "re ward",
      "an gry",
      "st ro",
      "en vir",
      "th et",
      "th ru",
      "ed in",
      "li f",
      "ro d",
      "se ver",
      "ve ga",
      "de ss",
      "de but",
      "ke lly",
      "ri ed",
      "ri dic",
      "ne ck",
      "el der",
      "il t",
      "be li",
      "be coming",
      "ho p",
      "la bor",
      "up s",
      "up coming",
      "di a",
      "as ing",
      "as ure",
      "ut en",
      "he aven",
      "ye g",
      "con tr",
      "con gress",
      "like for",
      "pe p",
      "pe ak",
      "mi stake",
      "no logy",
      "no tification",
      "fo cus",
      "na sty",
      "ot d",
      "hi p",
      "act ual",
      "wi ch",
      "the y",
      "the 100",
      "mon t",
      "mon ster",
      "lea ks",
      "ty ler",
      "ment ion",
      "ev il",
      "ust ed",
      "photo shop",
      "cre ative",
      "gi f",
      "su ggest",
      "coun ty",
      "bi ased",
      "head line",
      "str ate",
      "ag ency",
      "high light",
      "dre w",
      "are na",
      "clo sed",
      "put in",
      "stre ss",
      "wonder ing",
      "cli ck",
      "wal mart",
      "cover age",
      "belie ber",
      "net work",
      "class y",
      "sco red",
      "ele ct",
      "ask s",
      "dan iel",
      "order ed",
      "vic tor",
      "late st",
      "die go",
      "lma oo",
      "fine st",
      "emp ty",
      "hur ric",
      "bul l",
      "tur ning",
      "leader ship",
      "gener al",
      "fly ing",
      "iv ity",
      "tech nology",
      "bud dy",
      "sec ure",
      "shar ing",
      "bom b",
      "rup t",
      "hunter s",
      "pul l",
      "prin cess",
      "dn c",
      "icon ic",
      "alternative facts",
      "journal ist",
      "colo ur",
      "steel ers",
      "commun ication",
      "cit izen",
      "confid ence",
      "iri sh",
      "intro du",
      "achie ve",
      "partic ip",
      "camer a",
      "gol f",
      "illustr ation",
      "danger ous",
      "scholar ship",
      "kil led",
      "sour ce",
      "mich igan",
      "certain ly",
      "ucan ationals",
      "adver ti",
      "opport unity",
      "envir on",
      "hurric ane",
      "2 k",
      "3 6",
      "4 00",
      "b ff",
      "b ump",
      "c ub",
      "d ak",
      "d uty",
      "g ang",
      "j udge",
      "j adine",
      "k ay",
      "m ama",
      "n in",
      "n ws",
      "p j",
      "p ad",
      "q b",
      "r b",
      "s j",
      "s lay",
      "t an",
      "t ay",
      "v as",
      "w at",
      "x i",
      "y um",
      "y all",
      "in san",
      "on y",
      "re ss",
      "re pe",
      "re quest",
      "re cogn",
      "at temp",
      "or n",
      "or ange",
      "th x",
      "th ri",
      "ed ward",
      "me lan",
      "un real",
      "ic ian",
      "de an",
      "de te",
      "ac a",
      "ac c",
      "ac cess",
      "sh ape",
      "to y",
      "el la",
      "ur ant",
      "ir a",
      "ho l",
      "so oooo",
      "ma ker",
      "sp in",
      "sp ell",
      "la unch",
      "ge m",
      "di str",
      "pro cess",
      "ye a",
      "ra e",
      "mi chel",
      "ha i",
      "ca red",
      "pre dic",
      "pl ac",
      "is ing",
      "ant ly",
      "im press",
      "au di",
      "au thor",
      "some body",
      "some where",
      "ie st",
      "wa ste",
      "pa ren",
      "sc i",
      "sc am",
      "happy birthday",
      "ath lete",
      "use less",
      "ist ration",
      "port land",
      "car ry",
      "bu ff",
      "any way",
      "hel d",
      "ru de",
      "star bucks",
      "sat l",
      "str anger",
      "dr unk",
      "cal m",
      "dra gon",
      "cer e",
      "high est",
      "sho cking",
      "belie f",
      "sur round",
      "pack ed",
      "perfect ly",
      "hy un",
      "plan et",
      "fer r",
      "cute st",
      "join ing",
      "pen ny",
      "tor onto",
      "av y",
      "kill er",
      "but ton",
      "cu tie",
      "commit ment",
      "celebr ating",
      "bur g",
      "bur gh",
      "mc donald",
      "pal ette",
      "lear ned",
      "rac ism",
      "vent ion",
      "mex ican",
      "contin uing",
      "reg ion",
      "bless ing",
      "pit ch",
      "mart in",
      "stat us",
      "fix ed",
      "smo ke",
      "mir ror",
      "sele ct",
      "sher lock",
      "pra ise",
      "fur suit",
      "scri be",
      "nintend o",
      "cis ion",
      "repor ting",
      "chocol ate",
      "isra el",
      "gho st",
      "sud den",
      "ridic ulous",
      "nws ldraft",
      "tay lor",
      "4 9",
      "7 pm",
      "b art",
      "c s",
      "e qu",
      "e ag",
      "e spn",
      "g amer",
      "h und",
      "h ub",
      "i ch",
      "j ar",
      "j 20",
      "k ent",
      "k ers",
      "l g",
      "l n",
      "l en",
      "n c",
      "n ado",
      "o ak",
      "p ale",
      "p sy",
      "r at",
      "r ice",
      "r ating",
      "s f",
      "s ne",
      "s wa",
      "v u",
      "w m",
      "z ed",
      "re sta",
      "re bel",
      "re action",
      "us ive",
      "st en",
      "at l",
      "al um",
      "le ction",
      "li br",
      "me at",
      "it ive",
      "un ion",
      "un te",
      "ic t",
      "co tt",
      "ro me",
      "se o",
      "se ssed",
      "de ter",
      "de cor",
      "de vo",
      "de feat",
      "de cision",
      "am ong",
      "sh ed",
      "sh el",
      "sh all",
      "ur a",
      "ho le",
      "so ta",
      "so ooo",
      "we en",
      "we stand",
      "sp ro",
      "sp ark",
      "ok ed",
      "ok la",
      "fun d",
      "di ffic",
      "ate ly",
      "and a",
      "con tain",
      "vi le",
      "ra ise",
      "pe ep",
      "20 20",
      "pre gn",
      "pl or",
      "id ent",
      "sa re",
      "gr ay",
      "pic al",
      "good ness",
      "201 8",
      "au g",
      "great again",
      "ba k",
      "ber n",
      "do e",
      "gu el",
      "lea f",
      "ft en",
      "fi er",
      "tra it",
      "tra il",
      "my life",
      "car ri",
      "che m",
      "any body",
      "eng land",
      "bre ath",
      "sha wn",
      "indi vi",
      "boy cott",
      "cor n",
      "cor ner",
      "leg acy",
      "sy ri",
      "val ley",
      "dis appoint",
      "mean while",
      "who se",
      "pet er",
      "blo ody",
      "mm mm",
      "net flix",
      "bor der",
      "cap tion",
      "ni ke",
      "gra ss",
      "polit ician",
      "cont act",
      "scre aming",
      "child hood",
      "pick ed",
      "inv ent",
      "bas ic",
      "unity day",
      "down load",
      "pi lot",
      "visit ing",
      "roll ing",
      "respon d",
      "social media",
      "tho mas",
      "ug ly",
      "legend ary",
      "mic ro",
      "vol unte",
      "ref u",
      "possi bly",
      "jor dan",
      "roy al",
      "inde pend",
      "listen ing",
      "chang ing",
      "surpri sed",
      "cir cle",
      "haw ks",
      "sim ilar",
      "cul ture",
      "dat a",
      "gl uten",
      "ann ual",
      "soli d",
      "qui et",
      "thro ugh",
      "viol ence",
      "sme ll",
      "invest ig",
      "harmon izer",
      "fran cis",
      "inno v",
      "sou thern",
      "recru it",
      "brad y",
      "bid en",
      "perform ing",
      "fren ch",
      "caffe ine",
      "poet ry",
      "beli ev",
      "hund red",
      "3 7",
      "3 8",
      "4 7",
      "4 g",
      "6 6",
      "8 0",
      "a head",
      "b ama",
      "c b",
      "c ine",
      "d or",
      "d ama",
      "e z",
      "e vid",
      "e clipse",
      "f ell",
      "g low",
      "g ather",
      "h s",
      "j us",
      "k ir",
      "k night",
      "l ap",
      "m all",
      "m ater",
      "n ur",
      "n ut",
      "n bc",
      "n ude",
      "o ce",
      "o ften",
      "q t",
      "r ub",
      "r ated",
      "s wed",
      "s cared",
      "t n",
      "t gif",
      "u fc",
      "w c",
      "w as",
      "y u",
      "in ated",
      "re gre",
      "re qu",
      "re comm",
      "re main",
      "re publi",
      "re search",
      "us ual",
      "ar ter",
      "al a",
      "al t",
      "al ing",
      "le wis",
      "lo s",
      "li s",
      "ch ip",
      "ch ief",
      "un it",
      "un less",
      "ro mance",
      "de p",
      "am en",
      "sh es",
      "to wer",
      "gh an",
      "ad ult",
      "el li",
      "il a",
      "ent ly",
      "ir an",
      "ho ma",
      "ti es",
      "so lo",
      "od d",
      "ce ed",
      "sp aper",
      "ter m",
      "up load",
      "fun day",
      "di er",
      "di versity",
      "he avy",
      "con stit",
      "vi su",
      "mi guel",
      "ca it",
      "ct ure",
      "is inthe",
      "sa ss",
      "qu arter",
      "im pe",
      "na h",
      "know ledge",
      "hi de",
      "gu ar",
      "son ic",
      "ci se",
      "ci vil",
      "wh el",
      "br ace",
      "ser ving",
      "make america",
      "let ed",
      "out fit",
      "don ut",
      "ger man",
      "ger many",
      "bu te",
      "fre ak",
      "sun ny",
      "ship ping",
      "team mate",
      "fam ous",
      "sn ation",
      "light ning",
      "sit uation",
      "can cer",
      "sing h",
      "ene ss",
      "bar ry",
      "ja x",
      "je ff",
      "hum ble",
      "mean ing",
      "gen cy",
      "just for",
      "who ever",
      "fr ank",
      "food ie",
      "bus h",
      "tiv ity",
      "12 1",
      "aa a",
      "find ing",
      "health care",
      "wish ing",
      "stu ck",
      "fore cast",
      "ator s",
      "200 7",
      "200 9",
      "teach ing",
      "cu it",
      "ital y",
      "cha se",
      "bt w",
      "bel t",
      "pot ter",
      "protest ing",
      "hh h",
      "flo p",
      "flo or",
      "sil ver",
      "sil ent",
      "vin tage",
      "pal m",
      "stru ction",
      "hor se",
      "hor rible",
      "rich ard",
      "move ment",
      "gla s",
      "interest ed",
      "sch ed",
      "log ic",
      "spo on",
      "incredi bly",
      "grow th",
      "pur ple",
      "bot tom",
      "terror ism",
      "dire ct",
      "dire ction",
      "brit ish",
      "whe ther",
      "promo tion",
      "pan el",
      "sele cted",
      "confir m",
      "nh l",
      "near ly",
      "appe ar",
      "chine se",
      "ulti mate",
      "haw k",
      "bbc qt",
      "gal ax",
      "femin ist",
      "scot land",
      "tran sit",
      "disc us",
      "ador able",
      "when ever",
      "wol f",
      "afric an",
      "allow ed",
      "carol ina",
      "bath room",
      "vac ation",
      "deb ate",
      "deci de",
      "admin istration",
      "girlmeet s",
      "kno ck",
      "environ ment",
      "insan e",
      "paren ting",
      "sudden ly",
      "resta urant",
      "unityday s2017",
      "volunte er",
      "oce an",
      "republi can",
      "3 4",
      "3 9",
      "7 th",
      "8 5",
      "9 8",
      "a in",
      "a se",
      "a ke",
      "b is",
      "b last",
      "d it",
      "d ick",
      "e ffic",
      "g ic",
      "g all",
      "g vs",
      "h ed",
      "h ad",
      "h ump",
      "h oney",
      "i love",
      "i liar",
      "m n",
      "m end",
      "n ath",
      "o x",
      "o z",
      "o hi",
      "p od",
      "p ine",
      "p ha",
      "r ather",
      "s mi",
      "u x",
      "u ble",
      "v ind",
      "v ance",
      "w art",
      "w ig",
      "y ing",
      "in ed",
      "re c",
      "re ct",
      "re tro",
      "an aly",
      "st ed",
      "ar ke",
      "ar sen",
      "ar io",
      "en ced",
      "al li",
      "th en",
      "th el",
      "th ep",
      "ed it",
      "ed ition",
      "lo ud",
      "me tro",
      "ch en",
      "ch ed",
      "ch air",
      "de e",
      "de ce",
      "de sp",
      "go wn",
      "ac le",
      "ac ti",
      "ac are",
      "ke vin",
      "sh en",
      "sh ou",
      "ad er",
      "ad mit",
      "ne e",
      "ur ban",
      "il legal",
      "tr ick",
      "be came",
      "ho f",
      "ho ping",
      "ti s",
      "ti de",
      "ul der",
      "so le",
      "we ed",
      "we go",
      "sp an",
      "la ge",
      "ta e",
      "po ff",
      "di vision",
      "di splay",
      "wor ried",
      "end or",
      "ut ch",
      "bo om",
      "pro f",
      "con serv",
      "ny gvs",
      "com for",
      "mi st",
      "gre y",
      "app lic",
      "pre cious",
      "pl z",
      "ure d",
      "id er",
      "no chill",
      "life style",
      "fa ith",
      "fo g",
      "for um",
      "for tun",
      "201 2",
      "im possible",
      "na iled",
      "wo re",
      "wo ke",
      "sc ale",
      "hi re",
      "work er",
      "ev ol",
      "fi red",
      "game of",
      "my show",
      "ru th",
      "sar cast",
      "super man",
      "sha w",
      "ph il",
      "cl ay",
      "indi gen",
      "fam iliar",
      "inter n",
      "mom life",
      "god dess",
      "book myshow",
      "president trump",
      "land er",
      "comp li",
      "sm atter",
      "can ad",
      "dis respect",
      "ag an",
      "ag ent",
      "dra wn",
      "lu x",
      "lu ke",
      "free zing",
      "ja il",
      "clo ck",
      "tre mend",
      "fit ting",
      "over whel",
      "blo gs",
      "cent ury",
      "add y",
      "add ition",
      "bor ing",
      "hy po",
      "sco tt",
      "hope fully",
      "ele ctr",
      "lead ing",
      "sol dier",
      "fight er",
      "feeling it",
      "enjoy ed",
      "san ta",
      "tri bute",
      "recor ding",
      "sal ute",
      "zz le",
      "saying s",
      "poli cy",
      "bas ed",
      "tex an",
      "produ ctive",
      "def end",
      "respon sible",
      "uck y",
      "aw ful",
      "chill ing",
      "gener ous",
      "stick er",
      "bot tle",
      "phy s",
      "legit imate",
      "deliver ed",
      "democr at",
      "dire ctor",
      "simp ly",
      "dar ity",
      "pra isinthe",
      "exist s",
      "talent ed",
      "bour ne",
      "athe ist",
      "soli darity",
      "femin ism",
      "pd x",
      "sr k",
      "accep ted",
      "develo p",
      "amo unt",
      "from home",
      "pokemon go",
      "prepa red",
      "immigr ation",
      "flash back",
      "verb ally",
      "cancel led",
      "emer gency",
      "sb 51",
      "roman tic",
      "scrip tion",
      "candi date",
      "virgin ia",
      "sig ning",
      "zel da",
      "moun tain",
      "rod gers",
      "belieber s",
      "michel le",
      "libr ary",
      "okla homa",
      "makeamerica greatagain",
      "ohi o",
      "smi th",
      "arsen al",
      "shou tout",
      "nygvs gb",
      "indigen ous",
      "tremend ous",
      "praisinthe asian",
      "1 10",
      "2 50",
      "2 1st",
      "3 1",
      "4 like",
      "8 p",
      "8 th",
      "9 th",
      "a ger",
      "b ene",
      "b unch",
      "c um",
      "c bb",
      "d q",
      "d ang",
      "d ated",
      "d ale",
      "e go",
      "e qual",
      "f red",
      "g lit",
      "h d",
      "i f",
      "i ow",
      "j k",
      "k u",
      "k oh",
      "l s",
      "m ort",
      "o on",
      "o le",
      "o ta",
      "p il",
      "p ard",
      "r n",
      "r it",
      "r ate",
      "s ir",
      "s und",
      "t x",
      "t am",
      "t um",
      "t all",
      "u ed",
      "u ta",
      "v p",
      "v r",
      "y i",
      "y l",
      "y s",
      "z u",
      "z ay",
      "z ard",
      "er al",
      "in c",
      "in flu",
      "in formation",
      "re vol",
      "re tire",
      "an cy",
      "an ced",
      "st l",
      "st ing",
      "ar a",
      "en ger",
      "at ics",
      "le x",
      "or ity",
      "th ug",
      "lo ser",
      "me ster",
      "ch ap",
      "it rump",
      "un es",
      "ic ket",
      "ro t",
      "ro gue",
      "se ction",
      "se mester",
      "ve get",
      "ve gan",
      "de si",
      "de ms",
      "de light",
      "de scribe",
      "ac ting",
      "am b",
      "ri sk",
      "sh ark",
      "to ber",
      "ad ul",
      "ad ding",
      "ad ise",
      "el le",
      "tr on",
      "ir ing",
      "te m",
      "ho g",
      "so m",
      "ma gn",
      "we e",
      "we ak",
      "ce s",
      "sp ice",
      "ter ri",
      "la u",
      "ok ing",
      "up set",
      "as er",
      "op tion",
      "bo ss",
      "bo ther",
      "he el",
      "mo tor",
      "art work",
      "app ed",
      "ff x",
      "20 00",
      "ca sh",
      "pl s",
      "pl at",
      "ex t",
      "ex er",
      "ex press",
      "man ning",
      "look in",
      "no ts",
      "no tic",
      "fa ult",
      "jo se",
      "ga ga",
      "sa uce",
      "fo ol",
      "fo under",
      "201 4",
      "na il",
      "per fection",
      "ba ss",
      "wa king",
      "pa ssion",
      "ind y",
      "hi red",
      "act ed",
      "act ress",
      "ink le",
      "do se",
      "gu ard",
      "work fromhome",
      "off ended",
      "ath let",
      "let ting",
      "bl unt",
      "ak a",
      "min ne",
      "photo shoot",
      "girl s",
      "show er",
      "che ap",
      "da h",
      "ob sessed",
      "wit ty",
      "yo gi",
      "start up",
      "med al",
      "du o",
      "bi o",
      "bi ble",
      "ang le",
      "lie s",
      "par adise",
      "cr ap",
      "side walk",
      "care ful",
      "cor rect",
      "sn t",
      "help ed",
      "of the",
      "land o",
      "iz ation",
      "line up",
      "tro uble",
      "que ue",
      "dr one",
      "dr inking",
      "grat itude",
      "bad ge",
      "bad ass",
      "ag ed",
      "vo ter",
      "char lot",
      "sent ence",
      "ee e",
      "blo gger",
      "por trait",
      "rain ing",
      "pack ing",
      "cent re",
      "add ed",
      "cap ture",
      "cap ital",
      "fil led",
      "11 4",
      "em ma",
      "em bar",
      "offic er",
      "you th",
      "gro ss",
      "hal lo",
      "coach ing",
      "cast le",
      "form al",
      "fall ing",
      "bit coin",
      "insta good",
      "tor nado",
      "but ter",
      "ore gon",
      "ital ian",
      "tax i",
      "lim it",
      "pi x",
      "pot ential",
      "john son",
      "buy ing",
      "design ed",
      "appro ach",
      "appro ved",
      "special report",
      "sil ence",
      "fire work",
      "rock y",
      "vir al",
      "step hen",
      "aw ww",
      "drop ped",
      "fel la",
      "flow ers",
      "bra ve",
      "sport s",
      "sand wich",
      "log ical",
      "resist trump",
      "resist ance",
      "grow ing",
      "prote ster",
      "sex ism",
      "pass word",
      "fro zen",
      "ko ok",
      "bud get",
      "speak s",
      "brit ain",
      "nom ination",
      "here wego",
      "rad io",
      "mill er",
      "mb ps",
      "spn jax",
      "eli te",
      "major ity",
      "journal ism",
      "obam acare",
      "repor ter",
      "neg ative",
      "shadow hunters",
      "kkkk kkkk",
      "dum b",
      "entertain ment",
      "hid den",
      "standup comedy",
      "thr ones",
      "andre w",
      "kri sten",
      "phe w",
      "tat too",
      "wrest ling",
      "pep per",
      "plac ed",
      "impress ive",
      "audi ence",
      "ferr er",
      "region al",
      "eag le",
      "kent ucky",
      "oak land",
      "westand united",
      "vile ge",
      "bak ch",
      "fier ce",
      "cine ma",
      "regre t",
      "recomm end",
      "constit ution",
      "visu al",
      "gameof thrones",
      "sarcast ic",
      "canad ian",
      "blogs bar",
      "3 d",
      "5 5",
      "7 6",
      "9 gag",
      "a un",
      "a int",
      "a bility",
      "b d",
      "b f",
      "c fc",
      "c ult",
      "d ent",
      "d addy",
      "f ence",
      "f bi",
      "g ap",
      "g ie",
      "h t",
      "h is",
      "h ud",
      "i ed",
      "j et",
      "j ong",
      "k um",
      "k ward",
      "l ind",
      "l ud",
      "n s",
      "n it",
      "o v",
      "p p",
      "p ug",
      "q otd",
      "s se",
      "s ary",
      "t el",
      "t ca",
      "t wi",
      "t cot",
      "u di",
      "v it",
      "v satl",
      "y ed",
      "y uri",
      "in j",
      "in ner",
      "on ing",
      "on na",
      "re ve",
      "re lie",
      "re mark",
      "re lig",
      "an tiv",
      "an ime",
      "le on",
      "le go",
      "or ry",
      "or lando",
      "th um",
      "th ick",
      "ed gy",
      "ed iting",
      "lo ut",
      "li o",
      "li an",
      "li city",
      "ch op",
      "un ite",
      "un known",
      "un limited",
      "un believ",
      "co z",
      "co re",
      "co splay",
      "co ordin",
      "ro ut",
      "de c",
      "de vil",
      "de sper",
      "de plor",
      "ke m",
      "am s",
      "ri der",
      "sh am",
      "sh ell",
      "be e",
      "be ck",
      "be ast",
      "um a",
      "ir ma",
      "ho lic",
      "ti er",
      "ul a",
      "so o",
      "si gh",
      "si bility",
      "sp it",
      "ok ie",
      "ta gged",
      "fun nie",
      "wor se",
      "op pon",
      "bo i",
      "pro m",
      "pro per",
      "pro vide",
      "mo ved",
      "con st",
      "con vention",
      "ra ised",
      "ol ine",
      "ank a",
      "com mu",
      "mi ami",
      "app ing",
      "app ly",
      "app la",
      "mar vel",
      "ca de",
      "pre view",
      "is ation",
      "man to",
      "man chester",
      "man ager",
      "time line",
      "for med",
      "qu it",
      "good morning",
      "im pressed",
      "see k",
      "trump train",
      "wo ah",
      "wa ge",
      "pa ssed",
      "ind v",
      "ber gen",
      "ig no",
      "every time",
      "hi stor",
      "mor on",
      "do ing",
      "do me",
      "mon d",
      "gu in",
      "gu id",
      "back to",
      "work ed",
      "ty pical",
      "ser ve",
      "ser ved",
      "ens ion",
      "come back",
      "off ensive",
      "fi elder",
      "ren ce",
      "game s",
      "bl ing",
      "out lander",
      "ist ic",
      "min ation",
      "ll ing",
      "che ek",
      "da vis",
      "tweet ing",
      "any where",
      "sar ah",
      "super draft",
      "sha ke",
      "sun shine",
      "watch ed",
      "sk ip",
      "sta b",
      "pri vilege",
      "president ial",
      "exc ite",
      "att ending",
      "att ended",
      "sm iling",
      "can vas",
      "ab and",
      "may or",
      "inauguration day",
      "uni form",
      "keep life",
      "dog softwitter",
      "dis covered",
      "ag dq",
      "lu v",
      "rip ped",
      "cy cl",
      "dre ssed",
      "hand some",
      "char ger",
      "clo ser",
      "fact ory",
      "just kidding",
      "cat softwitter",
      "fr ance",
      "hard er",
      "over watch",
      "ts burgh",
      "nor thern",
      "cover y",
      "ass o",
      "add en",
      "plan ning",
      "sco ut",
      "ele cted",
      "shir ts",
      "kind ness",
      "gra b",
      "cour age",
      "fore ign",
      "bat tery",
      "hun gry",
      "sal t",
      "defin ition",
      "might y",
      "present ation",
      "inv ite",
      "cu ri",
      "bas ically",
      "bel ong",
      "pi er",
      "bur ger",
      "ten nes",
      "vic tim",
      "aus open",
      "sorry nots",
      "dest iny",
      "card s",
      "town hall",
      "ins ult",
      "bring s",
      "report ed",
      "vid ed",
      "stru cture",
      "pray ing",
      "aw kward",
      "fel low",
      "bill board",
      "thre at",
      "spot ted",
      "tun ed",
      "tren d",
      "emo ji",
      "pit tsburgh",
      "writ ers",
      "writ ten",
      "stat ue",
      "smo o",
      "she et",
      "kit ty",
      "mum bai",
      "mil k",
      "mil an",
      "cook ie",
      "become s",
      "gb vsatl",
      "touch down",
      "mini ster",
      "tin y",
      "price less",
      "aff ord",
      "follo back",
      "continue s",
      "apart ment",
      "eli za",
      "hmm m",
      "obam as",
      "nu clear",
      "dal las",
      "epic fail",
      "gm w",
      "inno cent",
      "zer o",
      "survi ve",
      "mental health",
      "emotion al",
      "jung kook",
      "adop ted",
      "woo hoo",
      "resc ue",
      "recent ly",
      "fif th",
      "brook lyn",
      "invol ved",
      "easi ly",
      "fare well",
      "neighbor hood",
      "jac ket",
      "sac ri",
      "lov atics",
      "greet ing",
      "whats app",
      "snark y",
      "econ omy",
      "fas cist",
      "likefor like",
      "strate gy",
      "attemp t",
      "melan ia",
      "cutie saturday",
      "equ ip",
      "psy cho",
      "sne ak",
      "devo s",
      "evid ence",
      "sass y",
      "glas bergen",
      "sched ule",
      "galax y",
      "girlmeets goodbye",
      "conserv ative",
      "comfor table",
      "applic ation",
      "evol ution",
      "zay n",
      "exer cise",
      "athlet ic",
      "minne sota",
      "relig ion",
      "funnie st",
      "oppon ent"
    ]
  }
}